{
  "version": "1.0",
  "truncation": null,
  "padding": null,
  "added_tokens": [
    {
      "id": 0,
      "content": "[UNK]",
      "single_word": false,
      "lstrip": false,
      "rstrip": false,
      "normalized": false,
      "special": true
    },
    {
      "id": 1,
      "content": "[CLS]",
      "single_word": false,
      "lstrip": false,
      "rstrip": false,
      "normalized": false,
      "special": true
    },
    {
      "id": 2,
      "content": "[SEP]",
      "single_word": false,
      "lstrip": false,
      "rstrip": false,
      "normalized": false,
      "special": true
    },
    {
      "id": 3,
      "content": "[PAD]",
      "single_word": false,
      "lstrip": false,
      "rstrip": false,
      "normalized": false,
      "special": true
    },
    {
      "id": 4,
      "content": "[MASK]",
      "single_word": false,
      "lstrip": false,
      "rstrip": false,
      "normalized": false,
      "special": true
    }
  ],
  "normalizer": null,
  "pre_tokenizer": {
    "type": "Whitespace"
  },
  "post_processor": null,
  "decoder": null,
  "model": {
    "type": "BPE",
    "dropout": null,
    "unk_token": "[UNK]",
    "continuing_subword_prefix": null,
    "end_of_word_suffix": null,
    "fuse_unk": false,
    "byte_fallback": false,
    "vocab": {
      "[UNK]": 0,
      "[CLS]": 1,
      "[SEP]": 2,
      "[PAD]": 3,
      "[MASK]": 4,
      "!": 5,
      "\"": 6,
      "#": 7,
      "$": 8,
      "%": 9,
      "&": 10,
      "'": 11,
      "(": 12,
      ")": 13,
      "*": 14,
      "+": 15,
      ",": 16,
      "-": 17,
      ".": 18,
      "/": 19,
      "0": 20,
      "1": 21,
      "2": 22,
      "3": 23,
      "4": 24,
      "5": 25,
      "6": 26,
      "7": 27,
      "8": 28,
      "9": 29,
      ":": 30,
      ";": 31,
      "<": 32,
      "=": 33,
      ">": 34,
      "?": 35,
      "@": 36,
      "A": 37,
      "B": 38,
      "C": 39,
      "D": 40,
      "E": 41,
      "F": 42,
      "G": 43,
      "H": 44,
      "I": 45,
      "J": 46,
      "K": 47,
      "L": 48,
      "M": 49,
      "N": 50,
      "O": 51,
      "P": 52,
      "Q": 53,
      "R": 54,
      "S": 55,
      "T": 56,
      "U": 57,
      "V": 58,
      "W": 59,
      "X": 60,
      "Y": 61,
      "Z": 62,
      "[": 63,
      "\\": 64,
      "]": 65,
      "^": 66,
      "_": 67,
      "`": 68,
      "a": 69,
      "b": 70,
      "c": 71,
      "d": 72,
      "e": 73,
      "f": 74,
      "g": 75,
      "h": 76,
      "i": 77,
      "j": 78,
      "k": 79,
      "l": 80,
      "m": 81,
      "n": 82,
      "o": 83,
      "p": 84,
      "q": 85,
      "r": 86,
      "s": 87,
      "t": 88,
      "u": 89,
      "v": 90,
      "w": 91,
      "x": 92,
      "y": 93,
      "z": 94,
      "{": 95,
      "|": 96,
      "}": 97,
      "~": 98,
      "": 99,
      "th": 100,
      "in": 101,
      "er": 102,
      "an": 103,
      "00": 104,
      "the": 105,
      "on": 106,
      "re": 107,
      "at": 108,
      "en": 109,
      "or": 110,
      "st": 111,
      "ed": 112,
      "al": 113,
      "ou": 114,
      "ing": 115,
      "to": 116,
      "ar": 117,
      "is": 118,
      "it": 119,
      "es": 120,
      "of": 121,
      "and": 122,
      "as": 123,
      "0000": 124,
      "ic": 125,
      "le": 126,
      "ion": 127,
      "om": 128,
      "he": 129,
      "ent": 130,
      "se": 131,
      "il": 132,
      "ac": 133,
      "be": 134,
      "ve": 135,
      "ly": 136,
      "id": 137,
      "ro": 138,
      "ad": 139,
      "for": 140,
      "am": 141,
      "that": 142,
      "ch": 143,
      "ow": 144,
      "ay": 145,
      "wh": 146,
      "im": 147,
      "ig": 148,
      "ol": 149,
      "ver": 150,
      "ot": 151,
      "00000000": 152,
      "ut": 153,
      "un": 154,
      "de": 155,
      "ge": 156,
      "ith": 157,
      "ter": 158,
      "ce": 159,
      "ur": 160,
      "ir": 161,
      "ation": 162,
      "ab": 163,
      "ct": 164,
      "are": 165,
      "con": 166,
      "The": 167,
      "with": 168,
      "ne": 169,
      "us": 170,
      "li": 171,
      "pe": 172,
      "ke": 173,
      "ers": 174,
      "ere": 175,
      "mo": 176,
      "com": 177,
      "we": 178,
      "ha": 179,
      "ld": 180,
      "lo": 181,
      "ill": 182,
      "su": 183,
      "you": 184,
      "was": 185,
      "te": 186,
      "all": 187,
      "out": 188,
      "pro": 189,
      "ate": 190,
      "ri": 191,
      "op": 192,
      "res": 193,
      "ul": 194,
      "ment": 195,
      "pl": 196,
      "ag": 197,
      "fr": 198,
      "ap": 199,
      "ex": 200,
      "igh": 201,
      "ain": 202,
      "tr": 203,
      "oun": 204,
      "ust": 205,
      "one": 206,
      "sh": 207,
      "if": 208,
      "by": 209,
      "ts": 210,
      "so": 211,
      "his": 212,
      "ist": 213,
      "our": 214,
      "not": 215,
      "me": 216,
      "have": 217,
      "ess": 218,
      "fe": 219,
      "ity": 220,
      "ould": 221,
      "po": 222,
      "ll": 223,
      "ther": 224,
      "from": 225,
      "art": 226,
      "sa": 227,
      "this": 228,
      "um": 229,
      "ive": 230,
      "qu": 231,
      "per": 232,
      "ant": 233,
      "go": 234,
      "wor": 235,
      "ome": 236,
      "ast": 237,
      "end": 238,
      "000000000000": 239,
      "has": 240,
      "act": 241,
      "od": 242,
      "up": 243,
      "ack": 244,
      "do": 245,
      "ally": 246,
      "ie": 247,
      "ies": 248,
      "but": 249,
      "ear": 250,
      "por": 251,
      "ight": 252,
      "em": 253,
      "In": 254,
      "gh": 255,
      "ard": 256,
      "cl": 257,
      "any": 258,
      "co": 259,
      "ak": 260,
      "can": 261,
      "they": 262,
      "20": 263,
      "will": 264,
      "au": 265,
      "said": 266,
      "pr": 267,
      "el": 268,
      "ind": 269,
      "iv": 270,
      "gr": 271,
      "ans": 272,
      "who": 273,
      "ough": 274,
      "tim": 275,
      "ich": 276,
      "ame": 277,
      "Th": 278,
      "af": 279,
      "ial": 280,
      "ide": 281,
      "der": 282,
      "their": 283,
      "age": 284,
      "ok": 285,
      "more": 286,
      "now": 287,
      "ev": 288,
      "ice": 289,
      "et": 290,
      "ong": 291,
      "ound": 292,
      "ine": 293,
      "some": 294,
      "ous": 295,
      "est": 296,
      "ure": 297,
      "ud": 298,
      "bl": 299,
      "no": 300,
      "port": 301,
      "ions": 302,
      "bo": 303,
      "about": 304,
      "ber": 305,
      "off": 306,
      "ated": 307,
      "had": 308,
      "year": 309,
      "its": 310,
      "day": 311,
      "ire": 312,
      "cre": 313,
      "ore": 314,
      "which": 315,
      "were": 316,
      "ep": 317,
      "able": 318,
      "It": 319,
      "ia": 320,
      "would": 321,
      "way": 322,
      "thing": 323,
      "man": 324,
      "cr": 325,
      "ake": 326,
      "ck": 327,
      "ence": 328,
      "like": 329,
      "ass": 330,
      "very": 331,
      "15": 332,
      "own": 333,
      "other": 334,
      "iz": 335,
      "ach": 336,
      "been": 337,
      "av": 338,
      "work": 339,
      "An": 340,
      "pre": 341,
      "xt": 342,
      "ip": 343,
      "her": 344,
      "ace": 345,
      "ary": 346,
      "over": 347,
      "ign": 348,
      "ty": 349,
      "new": 350,
      "ite": 351,
      "Wh": 352,
      "str": 353,
      "ue": 354,
      "form": 355,
      "get": 356,
      "dis": 357,
      "comp": 358,
      "St": 359,
      "sp": 360,
      "19": 361,
      "my": 362,
      "pres": 363,
      "ail": 364,
      "int": 365,
      "ile": 366,
      "than": 367,
      "time": 368,
      "ople": 369,
      "pos": 370,
      "there": 371,
      "cont": 372,
      "ish": 373,
      "aw": 374,
      "cent": 375,
      "part": 376,
      "ser": 377,
      "ical": 378,
      "ree": 379,
      "also": 380,
      "what": 381,
      "them": 382,
      "Ch": 383,
      "ef": 384,
      "just": 385,
      "44": 386,
      "play": 387,
      "201": 388,
      "We": 389,
      "br": 390,
      "your": 391,
      "when": 392,
      "He": 393,
      "cor": 394,
      "people": 395,
      "fir": 396,
      "ble": 397,
      "tw": 398,
      "ations": 399,
      "ens": 400,
      "fer": 401,
      "inter": 402,
      "du": 403,
      "low": 404,
      "pol": 405,
      "ren": 406,
      "ction": 407,
      "ance": 408,
      "ase": 409,
      "say": 410,
      "pt": 411,
      "into": 412,
      "ick": 413,
      "ho": 414,
      "ink": 415,
      "mer": 416,
      "ian": 417,
      "old": 418,
      "mon": 419,
      "ory": 420,
      "most": 421,
      "sc": 422,
      "ang": 423,
      "how": 424,
      "spe": 425,
      "ition": 426,
      "ident": 427,
      "att": 428,
      "coun": 429,
      "back": 430,
      "cau": 431,
      "ob": 432,
      "amp": 433,
      "know": 434,
      "ade": 435,
      "ates": 436,
      "ful": 437,
      "ors": 438,
      "she": 439,
      "10": 440,
      "ra": 441,
      "after": 442,
      "This": 443,
      "cess": 444,
      "cause": 445,
      "og": 446,
      "min": 447,
      "ubl": 448,
      "But": 449,
      "first": 450,
      "ting": 451,
      "ose": 452,
      "him": 453,
      "could": 454,
      "vers": 455,
      "cur": 456,
      "ious": 457,
      "644": 458,
      "00000000000000": 459,
      "only": 460,
      "sel": 461,
      "txt": 462,
      "ustar": 463,
      "0000644": 464,
      "0ustar": 465,
      "txt0000644": 466,
      "txt000064400000000": 467,
      "ning": 468,
      "txt000064400000000000000000000": 469,
      "two": 470,
      "fore": 471,
      "ild": 472,
      "enc": 473,
      "bet": 474,
      "row": 475,
      "pp": 476,
      "mar": 477,
      "And": 478,
      "ater": 479,
      "--": 480,
      "med": 481,
      "oc": 482,
      "ry": 483,
      "Un": 484,
      ".\"": 485,
      "sy": 486,
      "des": 487,
      "Ne": 488,
      "comm": 489,
      "don": 490,
      "under": 491,
      "where": 492,
      "ph": 493,
      "fin": 494,
      "add": 495,
      "did": 496,
      "see": 497,
      "ict": 498,
      "bu": 499,
      "again": 500,
      "read": 501,
      "use": 502,
      "even": 503,
      "gu": 504,
      "Tr": 505,
      "14": 506,
      "si": 507,
      "reg": 508,
      "because": 509,
      "ise": 510,
      "ating": 511,
      "ason": 512,
      "..": 513,
      "come": 514,
      "tur": 515,
      "ual": 516,
      "je": 517,
      "years": 518,
      "ved": 519,
      "need": 520,
      "As": 521,
      "ublic": 522,
      "ving": 523,
      "rough": 524,
      "fl": 525,
      "Re": 526,
      "ents": 527,
      "call": 528,
      "land": 529,
      "reat": 530,
      "ress": 531,
      "dr": 532,
      "anc": 533,
      "ments": 534,
      "try": 535,
      ",\"": 536,
      "down": 537,
      "ks": 538,
      "many": 539,
      "every": 540,
      "col": 541,
      "200": 542,
      "used": 543,
      "make": 544,
      "then": 545,
      "look": 546,
      "vie": 547,
      "ins": 548,
      "these": 549,
      "incl": 550,
      "uch": 551,
      "dif": 552,
      "ener": 553,
      "cord": 554,
      "air": 555,
      "think": 556,
      "leg": 557,
      "iss": 558,
      "ever": 559,
      "12": 560,
      "hel": 561,
      "ult": 562,
      "being": 563,
      "want": 564,
      "os": 565,
      "De": 566,
      "ational": 567,
      "itt": 568,
      "red": 569,
      "well": 570,
      "though": 571,
      "may": 572,
      "cer": 573,
      "lect": 574,
      "tal": 575,
      "ath": 576,
      "ci": 577,
      "less": 578,
      "rel": 579,
      "long": 580,
      "ject": 581,
      "ps": 582,
      "state": 583,
      "through": 584,
      "last": 585,
      "arch": 586,
      "ative": 587,
      "set": 588,
      "Amer": 589,
      "ased": 590,
      ").": 591,
      "right": 592,
      "self": 593,
      "pers": 594,
      "For": 595,
      "Americ": 596,
      "aking": 597,
      "should": 598,
      "ited": 599,
      "ash": 600,
      "New": 601,
      "tain": 602,
      "show": 603,
      "ug": 604,
      "those": 605,
      "cho": 606,
      "sup": 607,
      "let": 608,
      "high": 609,
      "ump": 610,
      "ities": 611,
      "much": 612,
      "pect": 613,
      "cle": 614,
      "ran": 615,
      "par": 616,
      "You": 617,
      "ven": 618,
      "If": 619,
      "atch": 620,
      "uring": 621,
      "gover": 622,
      "car": 623,
      "does": 624,
      "ics": 625,
      "led": 626,
      "going": 627,
      "les": 628,
      "imp": 629,
      "wr": 630,
      "00000000000015": 631,
      "govern": 632,
      "13": 633,
      "fect": 634,
      "vis": 635,
      "fun": 636,
      "before": 637,
      "stand": 638,
      "16": 639,
      "ince": 640,
      "team": 641,
      "made": 642,
      "vel": 643,
      "ves": 644,
      "put": 645,
      "mem": 646,
      "lar": 647,
      "while": 648,
      "sur": 649,
      "wee": 650,
      "cond": 651,
      "view": 652,
      "ss": 653,
      "als": 654,
      "pon": 655,
      "ned": 656,
      "dec": 657,
      "ort": 658,
      "world": 659,
      "ced": 660,
      "such": 661,
      "ys": 662,
      "main": 663,
      "ma": 664,
      "ms": 665,
      "ific": 666,
      "txt0000644000000000000000000000": 667,
      "Al": 668,
      "game": 669,
      "di": 670,
      "ily": 671,
      "Con": 672,
      "17": 673,
      "),": 674,
      "18": 675,
      "30": 676,
      "lead": 677,
      "good": 678,
      "produ": 679,
      "ings": 680,
      "sub": 681,
      "tri": 682,
      "ff": 683,
      "stud": 684,
      "start": 685,
      "They": 686,
      "ular": 687,
      "ner": 688,
      "ility": 689,
      "ward": 690,
      "stem": 691,
      "char": 692,
      "ton": 693,
      "gan": 694,
      "Se": 695,
      "line": 696,
      "ually": 697,
      "run": 698,
      "against": 699,
      "test": 700,
      "cial": 701,
      "ters": 702,
      "includ": 703,
      "000": 704,
      "25": 705,
      "Ar": 706,
      "here": 707,
      "still": 708,
      "There": 709,
      "law": 710,
      "ood": 711,
      "illion": 712,
      "take": 713,
      "ween": 714,
      "head": 715,
      "ower": 716,
      "olog": 717,
      "says": 718,
      "real": 719,
      "differ": 720,
      "Le": 721,
      "point": 722,
      "la": 723,
      "oup": 724,
      "clo": 725,
      "cut": 726,
      "ub": 727,
      "Com": 728,
      "num": 729,
      "sign": 730,
      "That": 731,
      "offic": 732,
      "tem": 733,
      "ask": 734,
      "quest": 735,
      "No": 736,
      "ism": 737,
      "val": 738,
      "between": 739,
      "same": 740,
      "cons": 741,
      "chan": 742,
      "government": 743,
      "Is": 744,
      "serv": 745,
      "ollow": 746,
      "che": 747,
      "war": 748,
      "cap": 749,
      "ists": 750,
      "hand": 751,
      "trans": 752,
      "eng": 753,
      "cour": 754,
      "fact": 755,
      "So": 756,
      "help": 757,
      "io": 758,
      "velo": 759,
      "plan": 760,
      "system": 761,
      "50": 762,
      "ames": 763,
      "around": 764,
      "person": 765,
      "report": 766,
      "Trump": 767,
      "book": 768,
      "three": 769,
      "11": 770,
      "side": 771,
      "ax": 772,
      "uss": 773,
      "On": 774,
      "sm": 775,
      "ures": 776,
      "inst": 777,
      "Br": 778,
      "fam": 779,
      "wom": 780,
      "Mar": 781,
      "public": 782,
      "ave": 783,
      "prov": 784,
      "ouse": 785,
      "ten": 786,
      "app": 787,
      "found": 788,
      "really": 789,
      "ied": 790,
      "got": 791,
      "life": 792,
      "Jo": 793,
      "vest": 794,
      "pri": 795,
      "Fr": 796,
      "ket": 797,
      "press": 798,
      "sure": 799,
      "son": 800,
      "ways": 801,
      "US": 802,
      "peri": 803,
      "def": 804,
      "lot": 805,
      "sul": 806,
      "Be": 807,
      "happ": 808,
      "gest": 809,
      "place": 810,
      "fil": 811,
      "vol": 812,
      "plo": 813,
      "ost": 814,
      "24": 815,
      "both": 816,
      "big": 817,
      "ann": 818,
      "month": 819,
      "support": 820,
      "issu": 821,
      "find": 822,
      "king": 823,
      "power": 824,
      "ense": 825,
      "irect": 826,
      ".[": 827,
      "ale": 828,
      "loc": 829,
      "miss": 830,
      "cept": 831,
      "aren": 832,
      "alth": 833,
      "polit": 834,
      "develo": 835,
      "ices": 836,
      "too": 837,
      "ages": 838,
      "respon": 839,
      "ship": 840,
      "vi": 841,
      "week": 842,
      "during": 843,
      "appe": 844,
      "ft": 845,
      "ng": 846,
      "gener": 847,
      "net": 848,
      "follow": 849,
      "told": 850,
      "beli": 851,
      "top": 852,
      "ds": 853,
      "list": 854,
      "How": 855,
      "ces": 856,
      "season": 857,
      "ically": 858,
      "Cl": 859,
      "ared": 860,
      "ines": 861,
      "came": 862,
      "bre": 863,
      "stru": 864,
      "since": 865,
      "few": 866,
      "rest": 867,
      "using": 868,
      "incre": 869,
      "23": 870,
      "ider": 871,
      "contin": 872,
      "vot": 873,
      "akes": 874,
      "cording": 875,
      "aim": 876,
      "bers": 877,
      "bus": 878,
      "az": 879,
      "26": 880,
      "27": 881,
      "home": 882,
      "Ad": 883,
      "turn": 884,
      "At": 885,
      "national": 886,
      "ris": 887,
      "far": 888,
      "allow": 889,
      "ted": 890,
      "ban": 891,
      "tell": 892,
      "ata": 893,
      "pass": 894,
      "ues": 895,
      "something": 896,
      "commun": 897,
      "oot": 898,
      "vent": 899,
      "giv": 900,
      "ution": 901,
      "another": 902,
      "care": 903,
      "post": 904,
      "rele": 905,
      "ah": 906,
      "sol": 907,
      "clear": 908,
      "order": 909,
      "invest": 910,
      "different": 911,
      "each": 912,
      "open": 913,
      "chool": 914,
      "ized": 915,
      "bit": 916,
      "blo": 917,
      "child": 918,
      "camp": 919,
      "kill": 920,
      "ody": 921,
      "ready": 922,
      "jo": 923,
      "When": 924,
      "ient": 925,
      "things": 926,
      "Pro": 927,
      "search": 928,
      "gram": 929,
      "second": 930,
      "40": 931,
      "gy": 932,
      "ush": 933,
      "might": 934,
      "Sh": 935,
      "possi": 936,
      "ext": 937,
      "rent": 938,
      "contro": 939,
      "unt": 940,
      "never": 941,
      "best": 942,
      "called": 943,
      "cover": 944,
      "What": 945,
      "ime": 946,
      "next": 947,
      "ross": 948,
      "ls": 949,
      "iness": 950,
      "ize": 951,
      "ivers": 952,
      "ca": 953,
      "move": 954,
      "ars": 955,
      "pay": 956,
      "atter": 957,
      "times": 958,
      "dist": 959,
      "ness": 960,
      "ield": 961,
      "60": 962,
      "change": 963,
      "requ": 964,
      "sing": 965,
      "ger": 966,
      "ature": 967,
      "build": 968,
      "ier": 969,
      "hum": 970,
      "including": 971,
      "direct": 972,
      "seem": 973,
      "feel": 974,
      "ittle": 975,
      "percent": 976,
      "ights": 977,
      "ital": 978,
      "She": 979,
      "light": 980,
      "oper": 981,
      "lim": 982,
      "million": 983,
      "hard": 984,
      "develop": 985,
      "appro": 986,
      "conom": 987,
      "inform": 988,
      "To": 989,
      "resident": 990,
      "interest": 991,
      "resul": 992,
      "ball": 993,
      "ired": 994,
      "ix": 995,
      "men": 996,
      "pop": 997,
      "won": 998,
      "present": 999,
      "oth": 1000,
      "without": 1001,
      "number": 1002,
      "case": 1003,
      "ele": 1004,
      "great": 1005,
      "ately": 1006,
      "four": 1007,
      "import": 1008,
      "sum": 1009,
      "proble": 1010,
      "bro": 1011,
      "ama": 1012,
      "country": 1013,
      "tech": 1014,
      "American": 1015,
      "ling": 1016,
      "ons": 1017,
      "dri": 1018,
      "better": 1019,
      "oney": 1020,
      "80": 1021,
      "partic": 1022,
      "Ro": 1023,
      "prom": 1024,
      "Rep": 1025,
      "level": 1026,
      "ably": 1027,
      "cri": 1028,
      "riend": 1029,
      "ished": 1030,
      "mil": 1031,
      "win": 1032,
      "ants": 1033,
      "sit": 1034,
      "recent": 1035,
      "70": 1036,
      "uro": 1037,
      "35": 1038,
      "little": 1039,
      "group": 1040,
      "left": 1041,
      "attack": 1042,
      "keep": 1043,
      "class": 1044,
      "prof": 1045,
      "hist": 1046,
      "Af": 1047,
      "ral": 1048,
      "ese": 1049,
      "fic": 1050,
      "uck": 1051,
      "22": 1052,
      "ency": 1053,
      "ark": 1054,
      "wit": 1055,
      "iting": 1056,
      "free": 1057,
      "effect": 1058,
      "organ": 1059,
      "jor": 1060,
      "claim": 1061,
      "hoto": 1062,
      "Ob": 1063,
      "didn": 1064,
      "nor": 1065,
      "den": 1066,
      "fac": 1067,
      "econom": 1068,
      "grow": 1069,
      "data": 1070,
      "Co": 1071,
      "body": 1072,
      "program": 1073,
      "tra": 1074,
      "ina": 1075,
      "90": 1076,
      "gre": 1077,
      "chang": 1078,
      "ports": 1079,
      "dep": 1080,
      "ont": 1081,
      "ord": 1082,
      "friend": 1083,
      "__": 1084,
      "school": 1085,
      "police": 1086,
      "plain": 1087,
      "ability": 1088,
      "near": 1089,
      "vious": 1090,
      "ather": 1091,
      "key": 1092,
      "rist": 1093,
      "based": 1094,
      "bal": 1095,
      "eas": 1096,
      "Pr": 1097,
      "spec": 1098,
      "atic": 1099,
      "ional": 1100,
      "minist": 1101,
      "ref": 1102,
      "expect": 1103,
      "inal": 1104,
      "Nor": 1105,
      "process": 1106,
      "thor": 1107,
      "company": 1108,
      "reason": 1109,
      "plic": 1110,
      "comple": 1111,
      "ats": 1112,
      "current": 1113,
      "pur": 1114,
      "hn": 1115,
      "ator": 1116,
      "One": 1117,
      "women": 1118,
      "hold": 1119,
      "president": 1120,
      "ending": 1121,
      "away": 1122,
      "small": 1123,
      "ided": 1124,
      "action": 1125,
      "coming": 1126,
      "28": 1127,
      "United": 1128,
      "rece": 1129,
      "var": 1130,
      "36": 1131,
      "later": 1132,
      "45": 1133,
      "aph": 1134,
      "vir": 1135,
      "ended": 1136,
      "city": 1137,
      "design": 1138,
      "why": 1139,
      "face": 1140,
      "99": 1141,
      "ern": 1142,
      "official": 1143,
      "ploy": 1144,
      "already": 1145,
      "business": 1146,
      "75": 1147,
      "ork": 1148,
      "story": 1149,
      "ives": 1150,
      "mocr": 1151,
      "Can": 1152,
      "Col": 1153,
      "making": 1154,
      "money": 1155,
      "adv": 1156,
      "ude": 1157,
      "health": 1158,
      "All": 1159,
      "always": 1160,
      "information": 1161,
      "techn": 1162,
      "ones": 1163,
      "bed": 1164,
      "whe": 1165,
      "ration": 1166,
      "und": 1167,
      "experi": 1168,
      "ago": 1169,
      "simp": 1170,
      "ute": 1171,
      "enter": 1172,
      "ards": 1173,
      "sever": 1174,
      "Bl": 1175,
      "elect": 1176,
      "tt": 1177,
      "major": 1178,
      "Mr": 1179,
      "ised": 1180,
      "job": 1181,
      "consider": 1182,
      "comes": 1183,
      "past": 1184,
      "project": 1185,
      "fort": 1186,
      "John": 1187,
      "aign": 1188,
      "hal": 1189,
      "cu": 1190,
      "cy": 1191,
      "bur": 1192,
      "ik": 1193,
      "days": 1194,
      "Pl": 1195,
      "Go": 1196,
      "ology": 1197,
      "kind": 1198,
      "...": 1199,
      "ged": 1200,
      "night": 1201,
      "que": 1202,
      "cost": 1203,
      "suc": 1204,
      "33": 1205,
      "ste": 1206,
      "bor": 1207,
      "must": 1208,
      "Car": 1209,
      "ample": 1210,
      "Pe": 1211,
      "important": 1212,
      "unch": 1213,
      "large": 1214,
      "Mo": 1215,
      "tax": 1216,
      "atur": 1217,
      "mor": 1218,
      "known": 1219,
      "Gr": 1220,
      "name": 1221,
      "edit": 1222,
      "qual": 1223,
      "doesn": 1224,
      "outh": 1225,
      "Li": 1226,
      "news": 1227,
      "happen": 1228,
      "working": 1229,
      "29": 1230,
      "ric": 1231,
      "gin": 1232,
      "acy": 1233,
      "position": 1234,
      "least": 1235,
      "late": 1236,
      "bas": 1237,
      "With": 1238,
      "May": 1239,
      "possible": 1240,
      "21": 1241,
      "remain": 1242,
      "Or": 1243,
      "family": 1244,
      "campaign": 1245,
      "mean": 1246,
      "enough": 1247,
      "ision": 1248,
      "cas": 1249,
      "ides": 1250,
      "Republic": 1251,
      "del": 1252,
      "field": 1253,
      "IS": 1254,
      "water": 1255,
      "likely": 1256,
      "record": 1257,
      "site": 1258,
      "vide": 1259,
      "human": 1260,
      "ribut": 1261,
      "ney": 1262,
      "polic": 1263,
      "deal": 1264,
      "exp": 1265,
      "political": 1266,
      "iversity": 1267,
      "Mc": 1268,
      "former": 1269,
      "Sy": 1270,
      "Ex": 1271,
      "until": 1272,
      "tar": 1273,
      "curity": 1274,
      "research": 1275,
      "certain": 1276,
      "ley": 1277,
      "eral": 1278,
      "tail": 1279,
      "ians": 1280,
      "ences": 1281,
      "Im": 1282,
      "76": 1283,
      "lear": 1284,
      "pot": 1285,
      "----": 1286,
      "posed": 1287,
      "took": 1288,
      "sex": 1289,
      "bar": 1290,
      "ror": 1291,
      "ey": 1292,
      "nal": 1293,
      "ird": 1294,
      "Euro": 1295,
      "ground": 1296,
      "President": 1297,
      "prote": 1298,
      "often": 1299,
      "sim": 1300,
      "Ind": 1301,
      "room": 1302,
      "give": 1303,
      "stop": 1304,
      "Bo": 1305,
      "sk": 1306,
      "ank": 1307,
      "nam": 1308,
      "actually": 1309,
      "ying": 1310,
      "ER": 1311,
      "34": 1312,
      "full": 1313,
      "inc": 1314,
      "pet": 1315,
      "become": 1316,
      "gen": 1317,
      "Don": 1318,
      "ster": 1319,
      "ined": 1320,
      "early": 1321,
      "ru": 1322,
      "according": 1323,
      "games": 1324,
      "After": 1325,
      "hour": 1326,
      "mind": 1327,
      "doing": 1328,
      "went": 1329,
      "Russ": 1330,
      "Ac": 1331,
      "non": 1332,
      "stre": 1333,
      "aid": 1334,
      "member": 1335,
      "seen": 1336,
      "Ph": 1337,
      "media": 1338,
      "Pol": 1339,
      "Ste": 1340,
      "Inter": 1341,
      "sug": 1342,
      "social": 1343,
      "aring": 1344,
      "crit": 1345,
      "ben": 1346,
      "graph": 1347,
      "65": 1348,
      "Mon": 1349,
      "charac": 1350,
      "having": 1351,
      "event": 1352,
      "five": 1353,
      "ization": 1354,
      "ali": 1355,
      "37": 1356,
      "ury": 1357,
      "une": 1358,
      "children": 1359,
      "100": 1360,
      "members": 1361,
      "uture": 1362,
      "eve": 1363,
      "course": 1364,
      "icle": 1365,
      "ib": 1366,
      "Some": 1367,
      "Wor": 1368,
      "players": 1369,
      "stit": 1370,
      "ither": 1371,
      "product": 1372,
      "ped": 1373,
      "success": 1374,
      "soci": 1375,
      "whether": 1376,
      "wer": 1377,
      "author": 1378,
      "today": 1379,
      "mber": 1380,
      "struct": 1381,
      "mid": 1382,
      "activ": 1383,
      "count": 1384,
      "Not": 1385,
      "Obama": 1386,
      "AT": 1387,
      "ought": 1388,
      "milit": 1389,
      "//": 1390,
      "York": 1391,
      "force": 1392,
      "question": 1393,
      "Europe": 1394,
      "2016": 1395,
      "meet": 1396,
      "several": 1397,
      "ensive": 1398,
      "sent": 1399,
      "contr": 1400,
      "idence": 1401,
      "Sp": 1402,
      "ns": 1403,
      "uc": 1404,
      "half": 1405,
      "aff": 1406,
      "aken": 1407,
      "ple": 1408,
      "State": 1409,
      "close": 1410,
      "example": 1411,
      "done": 1412,
      "along": 1413,
      "ories": 1414,
      "employ": 1415,
      "offer": 1416,
      "ential": 1417,
      "uary": 1418,
      "invol": 1419,
      "priv": 1420,
      "IN": 1421,
      "aged": 1422,
      "viol": 1423,
      "fund": 1424,
      "States": 1425,
      "Me": 1426,
      "cast": 1427,
      "understand": 1428,
      "ler": 1429,
      "watch": 1430,
      "avail": 1431,
      "ked": 1432,
      "once": 1433,
      "Coun": 1434,
      "RE": 1435,
      "tion": 1436,
      "local": 1437,
      "asked": 1438,
      "young": 1439,
      "Christ": 1440,
      "within": 1441,
      "months": 1442,
      "05": 1443,
      "West": 1444,
      "ially": 1445,
      "fig": 1446,
      "among": 1447,
      "38": 1448,
      "sour": 1449,
      "concer": 1450,
      "ron": 1451,
      "However": 1452,
      "mand": 1453,
      "Man": 1454,
      "acc": 1455,
      "Fe": 1456,
      "house": 1457,
      "64": 1458,
      "thought": 1459,
      "2015": 1460,
      "gether": 1461,
      "ilar": 1462,
      "mus": 1463,
      "While": 1464,
      "future": 1465,
      "investig": 1466,
      "yet": 1467,
      "plac": 1468,
      "orig": 1469,
      "given": 1470,
      "ague": 1471,
      "short": 1472,
      "ints": 1473,
      "means": 1474,
      "Sen": 1475,
      "problem": 1476,
      "fail": 1477,
      "77": 1478,
      "vert": 1479,
      "Democr": 1480,
      "En": 1481,
      "Dr": 1482,
      "95": 1483,
      "ified": 1484,
      "fully": 1485,
      "ots": 1486,
      "web": 1487,
      "pat": 1488,
      "community": 1489,
      "ulation": 1490,
      "issue": 1491,
      "Te": 1492,
      "gress": 1493,
      "fed": 1494,
      "House": 1495,
      "market": 1496,
      "My": 1497,
      "fight": 1498,
      "train": 1499,
      "legal": 1500,
      "mit": 1501,
      "across": 1502,
      "prob": 1503,
      "augh": 1504,
      "ivid": 1505,
      "video": 1506,
      "suggest": 1507,
      "makes": 1508,
      "party": 1509,
      "itive": 1510,
      "reported": 1511,
      "00000000000014": 1512,
      "wal": 1513,
      "ium": 1514,
      "step": 1515,
      "fur": 1516,
      "getting": 1517,
      "Min": 1518,
      "star": 1519,
      "ators": 1520,
      "dro": 1521,
      "Do": 1522,
      "ene": 1523,
      "others": 1524,
      "control": 1525,
      "hy": 1526,
      "spo": 1527,
      "strong": 1528,
      "depend": 1529,
      "AN": 1530,
      "deb": 1531,
      "dev": 1532,
      "together": 1533,
      "believe": 1534,
      "gl": 1535,
      "University": 1536,
      "descri": 1537,
      "Mic": 1538,
      "ible": 1539,
      "ane": 1540,
      "announ": 1541,
      "gun": 1542,
      "reach": 1543,
      "love": 1544,
      "ove": 1545,
      "fall": 1546,
      "2014": 1547,
      "ison": 1548,
      "ising": 1549,
      "nes": 1550,
      "har": 1551,
      "term": 1552,
      "available": 1553,
      "indust": 1554,
      "mal": 1555,
      "trad": 1556,
      "ony": 1557,
      "ington": 1558,
      "foot": 1559,
      "ister": 1560,
      "particular": 1561,
      "disc": 1562,
      "hind": 1563,
      "War": 1564,
      "iety": 1565,
      "ived": 1566,
      "live": 1567,
      "pret": 1568,
      "death": 1569,
      "aster": 1570,
      "bad": 1571,
      "America": 1572,
      "foc": 1573,
      "ured": 1574,
      "looking": 1575,
      "front": 1576,
      "started": 1577,
      "met": 1578,
      "cal": 1579,
      "98": 1580,
      "sl": 1581,
      "mot": 1582,
      "load": 1583,
      "access": 1584,
      "history": 1585,
      ".,": 1586,
      "mom": 1587,
      "safe": 1588,
      "Ju": 1589,
      "kes": 1590,
      "66": 1591,
      "complete": 1592,
      "ming": 1593,
      "Bar": 1594,
      "Now": 1595,
      "hit": 1596,
      "ond": 1597,
      "series": 1598,
      "hip": 1599,
      "74": 1600,
      "almost": 1601,
      "bi": 1602,
      "anal": 1603,
      "following": 1604,
      "selves": 1605,
      "Canad": 1606,
      "pract": 1607,
      "iter": 1608,
      "wa": 1609,
      "ances": 1610,
      "ON": 1611,
      "trying": 1612,
      "mission": 1613,
      "Just": 1614,
      "Ser": 1615,
      "Har": 1616,
      "gn": 1617,
      "security": 1618,
      "idea": 1619,
      "uses": 1620,
      "These": 1621,
      "isn": 1622,
      "Ger": 1623,
      "six": 1624,
      "aft": 1625,
      "added": 1626,
      "round": 1627,
      "cell": 1628,
      "rul": 1629,
      "area": 1630,
      "fav": 1631,
      "crim": 1632,
      "ination": 1633,
      "compan": 1634,
      "conne": 1635,
      "vo": 1636,
      "experience": 1637,
      "By": 1638,
      "tow": 1639,
      "Sun": 1640,
      "taken": 1641,
      "itions": 1642,
      "tom": 1643,
      "player": 1644,
      "55": 1645,
      "Res": 1646,
      "proper": 1647,
      "court": 1648,
      "Eng": 1649,
      "Ge": 1650,
      "North": 1651,
      "32": 1652,
      "anything": 1653,
      "space": 1654,
      "fire": 1655,
      "itional": 1656,
      "48": 1657,
      "individ": 1658,
      "ustom": 1659,
      "return": 1660,
      "pick": 1661,
      "ww": 1662,
      "Dep": 1663,
      "inton": 1664,
      "sof": 1665,
      "Isra": 1666,
      "publ": 1667,
      "aper": 1668,
      "taking": 1669,
      "saying": 1670,
      "black": 1671,
      "bill": 1672,
      "threat": 1673,
      "argu": 1674,
      "His": 1675,
      "sal": 1676,
      "board": 1677,
      "similar": 1678,
      "ded": 1679,
      "photo": 1680,
      "block": 1681,
      "ams": 1682,
      "defin": 1683,
      "wanted": 1684,
      "break": 1685,
      "date": 1686,
      "behind": 1687,
      "uge": 1688,
      "ecut": 1689,
      "08": 1690,
      "Dav": 1691,
      "film": 1692,
      "military": 1693,
      "fa": 1694,
      "impro": 1695,
      "entire": 1696,
      "ference": 1697,
      "dom": 1698,
      "ched": 1699,
      "exist": 1700,
      "World": 1701,
      "dit": 1702,
      "Gu": 1703,
      "food": 1704,
      "road": 1705,
      "78": 1706,
      "rather": 1707,
      "turned": 1708,
      "discuss": 1709,
      "mess": 1710,
      "2013": 1711,
      "colle": 1712,
      "mult": 1713,
      "31": 1714,
      "tries": 1715,
      "ges": 1716,
      "Brit": 1717,
      "39": 1718,
      "cret": 1719,
      "National": 1720,
      "wide": 1721,
      "flu": 1722,
      "study": 1723,
      "works": 1724,
      "aver": 1725,
      "individual": 1726,
      "sty": 1727,
      "woman": 1728,
      "bring": 1729,
      "points": 1730,
      "single": 1731,
      "reed": 1732,
      "explain": 1733,
      "policy": 1734,
      "special": 1735,
      "Clinton": 1736,
      "quick": 1737,
      "ott": 1738,
      "version": 1739,
      "previous": 1740,
      "band": 1741,
      "roll": 1742,
      "City": 1743,
      "check": 1744,
      "stri": 1745,
      "rad": 1746,
      "imate": 1747,
      "Sc": 1748,
      "someone": 1749,
      "lier": 1750,
      "Aust": 1751,
      "scre": 1752,
      "paren": 1753,
      "text": 1754,
      "uni": 1755,
      "2012": 1756,
      "ae": 1757,
      "dest": 1758,
      "imm": 1759,
      "AS": 1760,
      "Wash": 1761,
      "AR": 1762,
      "ock": 1763,
      "ull": 1764,
      "attem": 1765,
      "htt": 1766,
      "glo": 1767,
      "probably": 1768,
      "agree": 1769,
      "46": 1770,
      "nothing": 1771,
      "sus": 1772,
      "redu": 1773,
      "phone": 1774,
      "dam": 1775,
      "cially": 1776,
      "else": 1777,
      "box": 1778,
      "enn": 1779,
      "**": 1780,
      "tee": 1781,
      "2017": 1782,
      "wards": 1783,
      "create": 1784,
      "comb": 1785,
      "service": 1786,
      "Part": 1787,
      "ald": 1788,
      "BC": 1789,
      "Jan": 1790,
      "ES": 1791,
      "decl": 1792,
      "ids": 1793,
      "due": 1794,
      "protect": 1795,
      "rights": 1796,
      "equ": 1797,
      "viron": 1798,
      "://": 1799,
      "sell": 1800,
      "signific": 1801,
      "docu": 1802,
      ".)": 1803,
      "exper": 1804,
      "artment": 1805,
      "ention": 1806,
      "third": 1807,
      "detail": 1808,
      "iday": 1809,
      "benef": 1810,
      "played": 1811,
      "Washington": 1812,
      "share": 1813,
      "gain": 1814,
      "either": 1815,
      "uff": 1816,
      "mass": 1817,
      "however": 1818,
      "lies": 1819,
      "rote": 1820,
      "Wil": 1821,
      "South": 1822,
      "anger": 1823,
      "issues": 1824,
      "sen": 1825,
      "decision": 1826,
      "Fl": 1827,
      "role": 1828,
      "Je": 1829,
      "host": 1830,
      "lish": 1831,
      "conf": 1832,
      "ana": 1833,
      "feat": 1834,
      "ham": 1835,
      "wrote": 1836,
      "chall": 1837,
      "cop": 1838,
      "ox": 1839,
      "meas": 1840,
      "result": 1841,
      "ging": 1842,
      "init": 1843,
      "stat": 1844,
      "dou": 1845,
      "attle": 1846,
      "rate": 1847,
      "sound": 1848,
      "amoun": 1849,
      "cul": 1850,
      "begin": 1851,
      "ret": 1852,
      "further": 1853,
      "represent": 1854,
      "common": 1855,
      "gets": 1856,
      "hope": 1857,
      "Tim": 1858,
      "final": 1859,
      "tit": 1860,
      "draw": 1861,
      "utes": 1862,
      "building": 1863,
      "match": 1864,
      "track": 1865,
      "ife": 1866,
      "cand": 1867,
      "ender": 1868,
      "everything": 1869,
      "Med": 1870,
      "68": 1871,
      "true": 1872,
      "states": 1873,
      "released": 1874,
      "whole": 1875,
      "word": 1876,
      "inste": 1877,
      "seems": 1878,
      "pie": 1879,
      "white": 1880,
      "companies": 1881,
      "type": 1882,
      "dle": 1883,
      "Sep": 1884,
      "ford": 1885,
      "tic": 1886,
      "leaders": 1887,
      "amer": 1888,
      "matter": 1889,
      "China": 1890,
      "federal": 1891,
      "pite": 1892,
      "character": 1893,
      "development": 1894,
      "News": 1895,
      "Per": 1896,
      "custom": 1897,
      "Par": 1898,
      "Mus": 1899,
      "specific": 1900,
      "statement": 1901,
      "itted": 1902,
      "personal": 1903,
      "ai": 1904,
      "anti": 1905,
      "49": 1906,
      "execut": 1907,
      "pen": 1908,
      "bb": 1909,
      "reme": 1910,
      "ively": 1911,
      "ivil": 1912,
      "students": 1913,
      "uation": 1914,
      "jud": 1915,
      "anim": 1916,
      "playing": 1917,
      "email": 1918,
      "Twit": 1919,
      "oups": 1920,
      "outside": 1921,
      "general": 1922,
      "lam": 1923,
      "vision": 1924,
      "saw": 1925,
      "began": 1926,
      "running": 1927,
      "47": 1928,
      "above": 1929,
      "officials": 1930,
      "mag": 1931,
      "office": 1932,
      "address": 1933,
      "appear": 1934,
      "town": 1935,
      "aut": 1936,
      "asing": 1937,
      "administ": 1938,
      "ctor": 1939,
      "link": 1940,
      "hours": 1941,
      "lab": 1942,
      "urs": 1943,
      "continue": 1944,
      "provide": 1945,
      "ently": 1946,
      "ief": 1947,
      "lock": 1948,
      "himself": 1949,
      "forward": 1950,
      "inj": 1951,
      "typ": 1952,
      "launch": 1953,
      "mis": 1954,
      "shot": 1955,
      "lement": 1956,
      "Face": 1957,
      "significant": 1958,
      "vironment": 1959,
      "deli": 1960,
      "Cor": 1961,
      "itself": 1962,
      "uel": 1963,
      "White": 1964,
      "held": 1965,
      "profess": 1966,
      "sequ": 1967,
      "themselves": 1968,
      "value": 1969,
      "drug": 1970,
      "worth": 1971,
      "ried": 1972,
      "became": 1973,
      "ify": 1974,
      "wind": 1975,
      "wasn": 1976,
      "lt": 1977,
      "199": 1978,
      "simply": 1979,
      "hor": 1980,
      "countries": 1981,
      "changes": 1982,
      "sco": 1983,
      "Twitter": 1984,
      "words": 1985,
      "TV": 1986,
      "espe": 1987,
      "angu": 1988,
      "election": 1989,
      "diffic": 1990,
      "groups": 1991,
      "TH": 1992,
      "needed": 1993,
      "ior": 1994,
      "pose": 1995,
      "log": 1996,
      "range": 1997,
      "reco": 1998,
      "evidence": 1999,
      "interview": 2000,
      "release": 2001,
      "quar": 2002,
      "especially": 2003,
      "music": 2004,
      "needs": 2005,
      "relation": 2006,
      "everyone": 2007,
      "tru": 2008,
      "Am": 2009,
      "function": 2010,
      "energy": 2011,
      "ands": 2012,
      "ager": 2013,
      "expected": 2014,
      "code": 2015,
      "ctions": 2016,
      "contain": 2017,
      "ze": 2018,
      "ogle": 2019,
      "continu": 2020,
      "audi": 2021,
      "App": 2022,
      "approach": 2023,
      "ades": 2024,
      "shows": 2025,
      "financ": 2026,
      "include": 2027,
      "medi": 2028,
      "below": 2029,
      "pain": 2030,
      "stay": 2031,
      "rac": 2032,
      "vote": 2033,
      "talk": 2034,
      "06": 2035,
      "pretty": 2036,
      "AC": 2037,
      "ilt": 2038,
      "quite": 2039,
      "Em": 2040,
      "unity": 2041,
      "billion": 2042,
      "88": 2043,
      "ends": 2044,
      "super": 2045,
      "AM": 2046,
      "sense": 2047,
      "aul": 2048,
      "div": 2049,
      "ournal": 2050,
      "commit": 2051,
      "ption": 2052,
      "AP": 2053,
      "treat": 2054,
      "industry": 2055,
      "necess": 2056,
      "gir": 2057,
      "thod": 2058,
      "II": 2059,
      "economic": 2060,
      "push": 2061,
      "hol": 2062,
      "ience": 2063,
      "Facebook": 2064,
      "lost": 2065,
      "More": 2066,
      "candid": 2067,
      "nation": 2068,
      "accept": 2069,
      "shoot": 2070,
      "March": 2071,
      "educ": 2072,
      "cir": 2073,
      "quality": 2074,
      "==": 2075,
      "scri": 2076,
      "tre": 2077,
      "base": 2078,
      "strate": 2079,
      "dict": 2080,
      "da": 2081,
      "pack": 2082,
      "lower": 2083,
      "Here": 2084,
      "09": 2085,
      "vic": 2086,
      "instead": 2087,
      "alleg": 2088,
      "cit": 2089,
      "ners": 2090,
      "forman": 2091,
      "itch": 2092,
      "believ": 2093,
      "flo": 2094,
      "sess": 2095,
      "iding": 2096,
      "Su": 2097,
      "review": 2098,
      "urch": 2099,
      "ples": 2100,
      "hom": 2101,
      "2011": 2102,
      "compet": 2103,
      "explo": 2104,
      "total": 2105,
      "Aug": 2106,
      "bly": 2107,
      "relig": 2108,
      "actions": 2109,
      "Red": 2110,
      "respect": 2111,
      "serious": 2112,
      "Qu": 2113,
      "Ear": 2114,
      "soc": 2115,
      "79": 2116,
      "recently": 2117,
      "period": 2118,
      "phys": 2119,
      "soon": 2120,
      "opport": 2121,
      "weeks": 2122,
      "popular": 2123,
      "spir": 2124,
      "ament": 2125,
      "According": 2126,
      "Google": 2127,
      "AL": 2128,
      "June": 2129,
      "Of": 2130,
      "longer": 2131,
      "sw": 2132,
      "ping": 2133,
      "Des": 2134,
      "ee": 2135,
      "Republican": 2136,
      "wrong": 2137,
      "oud": 2138,
      "sed": 2139,
      "aging": 2140,
      "moved": 2141,
      "object": 2142,
      "lin": 2143,
      "tro": 2144,
      "terror": 2145,
      "Syri": 2146,
      "page": 2147,
      "cil": 2148,
      "moment": 2149,
      "Gre": 2150,
      "favor": 2151,
      "Photo": 2152,
      "04": 2153,
      "Department": 2154,
      "God": 2155,
      "goal": 2156,
      "ung": 2157,
      "online": 2158,
      "ties": 2159,
      "____": 2160,
      "Apr": 2161,
      "rup": 2162,
      "cult": 2163,
      "dead": 2164,
      "prim": 2165,
      "sha": 2166,
      "article": 2167,
      "Pal": 2168,
      "ino": 2169,
      "85": 2170,
      "duct": 2171,
      "higher": 2172,
      "Cong": 2173,
      "Oc": 2174,
      "potential": 2175,
      "ken": 2176,
      "Off": 2177,
      "gas": 2178,
      "scient": 2179,
      "July": 2180,
      "Fir": 2181,
      "Ed": 2182,
      "Tur": 2183,
      "rew": 2184,
      "famil": 2185,
      "surpr": 2186,
      "Act": 2187,
      "rown": 2188,
      "demand": 2189,
      "target": 2190,
      "comput": 2191,
      "killed": 2192,
      "friends": 2193,
      "risk": 2194,
      "tou": 2195,
      "results": 2196,
      "San": 2197,
      "kets": 2198,
      "services": 2199,
      "male": 2200,
      "OR": 2201,
      "express": 2202,
      "Hill": 2203,
      "Her": 2204,
      "applic": 2205,
      "Even": 2206,
      "account": 2207,
      "attempt": 2208,
      "pan": 2209,
      "via": 2210,
      "created": 2211,
      "Char": 2212,
      "Sm": 2213,
      "langu": 2214,
      "sold": 2215,
      "ba": 2216,
      "protest": 2217,
      "refer": 2218,
      "moder": 2219,
      "2010": 2220,
      "source": 2221,
      "difficult": 2222,
      "atives": 2223,
      "EN": 2224,
      "content": 2225,
      "easy": 2226,
      "performan": 2227,
      "Congress": 2228,
      "teach": 2229,
      "anyone": 2230,
      "hood": 2231,
      "OS": 2232,
      "minutes": 2233,
      "covered": 2234,
      "private": 2235,
      "Austral": 2236,
      "67": 2237,
      "ilities": 2238,
      "ugg": 2239,
      "reve": 2240,
      "lex": 2241,
      "technology": 2242,
      "speak": 2243,
      "environment": 2244,
      "haps": 2245,
      "comment": 2246,
      "Friday": 2247,
      "arm": 2248,
      "fast": 2249,
      "Cour": 2250,
      "earlier": 2251,
      "emp": 2252,
      "received": 2253,
      "apan": 2254,
      "David": 2255,
      "Spe": 2256,
      "oil": 2257,
      "Americans": 2258,
      "fair": 2259,
      "problems": 2260,
      "coup": 2261,
      "ange": 2262,
      "announced": 2263,
      "omb": 2264,
      "natur": 2265,
      "April": 2266,
      "ows": 2267,
      "coach": 2268,
      "amount": 2269,
      "na": 2270,
      "estab": 2271,
      "First": 2272,
      "cing": 2273,
      "firm": 2274,
      "ij": 2275,
      "increase": 2276,
      "Russia": 2277,
      "cannot": 2278,
      "Po": 2279,
      "questions": 2280,
      "contribut": 2281,
      "Lo": 2282,
      "civil": 2283,
      "Japan": 2284,
      "responsi": 2285,
      "involved": 2286,
      "cases": 2287,
      "alter": 2288,
      "club": 2289,
      "users": 2290,
      "fill": 2291,
      "original": 2292,
      "ring": 2293,
      "Post": 2294,
      "heav": 2295,
      "ites": 2296,
      "mater": 2297,
      "mark": 2298,
      "lines": 2299,
      "iple": 2300,
      "rain": 2301,
      "Donald": 2302,
      "East": 2303,
      "average": 2304,
      "verse": 2305,
      "opt": 2306,
      "IC": 2307,
      "nearly": 2308,
      "wish": 2309,
      "07": 2310,
      "exact": 2311,
      "Tues": 2312,
      "sil": 2313,
      "vict": 2314,
      "Israel": 2315,
      "Ab": 2316,
      "69": 2317,
      "response": 2318,
      "worked": 2319,
      "Geor": 2320,
      "intro": 2321,
      "deep": 2322,
      "living": 2323,
      "Monday": 2324,
      "counter": 2325,
      "workers": 2326,
      "relationship": 2327,
      "Mi": 2328,
      "broad": 2329,
      "Get": 2330,
      "itten": 2331,
      "cli": 2332,
      "published": 2333,
      "inside": 2334,
      "leave": 2335,
      "answer": 2336,
      "Tuesday": 2337,
      "global": 2338,
      "ires": 2339,
      "isl": 2340,
      "Cr": 2341,
      "lack": 2342,
      "Islam": 2343,
      "lying": 2344,
      "international": 2345,
      "bert": 2346,
      "Sch": 2347,
      "Wed": 2348,
      "regard": 2349,
      "spect": 2350,
      "arrest": 2351,
      "fans": 2352,
      "emer": 2353,
      "staff": 2354,
      "request": 2355,
      "nel": 2356,
      "dig": 2357,
      "inte": 2358,
      "associ": 2359,
      "collect": 2360,
      "price": 2361,
      "sem": 2362,
      "director": 2363,
      "bility": 2364,
      "Paul": 2365,
      "ery": 2366,
      "hop": 2367,
      "subject": 2368,
      "capital": 2369,
      "takes": 2370,
      "squ": 2371,
      "immedi": 2372,
      "decided": 2373,
      "reports": 2374,
      "weap": 2375,
      "chance": 2376,
      "43": 2377,
      "wood": 2378,
      "thern": 2379,
      "terms": 2380,
      "tember": 2381,
      "screen": 2382,
      "related": 2383,
      "El": 2384,
      "tor": 2385,
      "pict": 2386,
      "izing": 2387,
      "tellig": 2388,
      "42": 2389,
      "built": 2390,
      "exc": 2391,
      "indic": 2392,
      ");": 2393,
      "September": 2394,
      "financial": 2395,
      "termin": 2396,
      "production": 2397,
      "lied": 2398,
      "joy": 2399,
      "Stre": 2400,
      "onto": 2401,
      "mother": 2402,
      "size": 2403,
      "model": 2404,
      "January": 2405,
      "mode": 2406,
      "heart": 2407,
      "simple": 2408,
      "Phil": 2409,
      "currently": 2410,
      "nia": 2411,
      "Nove": 2412,
      "race": 2413,
      "IT": 2414,
      "hot": 2415,
      "buy": 2416,
      "active": 2417,
      "ech": 2418,
      "foreign": 2419,
      "influ": 2420,
      "bon": 2421,
      "goes": 2422,
      "cd": 2423,
      "gave": 2424,
      "west": 2425,
      "dol": 2426,
      "recogn": 2427,
      "Dis": 2428,
      "arri": 2429,
      "perform": 2430,
      "tool": 2431,
      "style": 2432,
      "whose": 2433,
      "\".": 2434,
      "Black": 2435,
      "aving": 2436,
      "father": 2437,
      "Then": 2438,
      "November": 2439,
      "Afr": 2440,
      "engine": 2441,
      "ffer": 2442,
      "require": 2443,
      "acts": 2444,
      "mp": 2445,
      "lay": 2446,
      "happened": 2447,
      "clus": 2448,
      "89": 2449,
      "die": 2450,
      "lives": 2451,
      "From": 2452,
      "ica": 2453,
      "performance": 2454,
      "material": 2455,
      "supp": 2456,
      "method": 2457,
      "loss": 2458,
      "Wednes": 2459,
      "ival": 2460,
      "events": 2461,
      "tober": 2462,
      "situation": 2463,
      "European": 2464,
      "tele": 2465,
      "56": 2466,
      "Court": 2467,
      "Thurs": 2468,
      "Canada": 2469,
      "felt": 2470,
      "\",": 2471,
      "Cali": 2472,
      "ky": 2473,
      "Star": 2474,
      "ED": 2475,
      "speed": 2476,
      "particip": 2477,
      "plans": 2478,
      "introdu": 2479,
      "nu": 2480,
      "meeting": 2481,
      "hear": 2482,
      "ID": 2483,
      "Wednesday": 2484,
      "ker": 2485,
      "August": 2486,
      "grad": 2487,
      "teams": 2488,
      "vertise": 2489,
      "trade": 2490,
      "October": 2491,
      "huge": 2492,
      "heard": 2493,
      "Russian": 2494,
      "card": 2495,
      "ny": 2496,
      "career": 2497,
      "Ho": 2498,
      "cup": 2499,
      "allowed": 2500,
      "UK": 2501,
      "image": 2502,
      "Thursday": 2503,
      "fell": 2504,
      "feature": 2505,
      "bot": 2506,
      "areas": 2507,
      "wel": 2508,
      "avo": 2509,
      "seven": 2510,
      "Our": 2511,
      "affect": 2512,
      "couple": 2513,
      "impact": 2514,
      "rid": 2515,
      "repe": 2516,
      "van": 2517,
      "Every": 2518,
      "Califor": 2519,
      "British": 2520,
      "mention": 2521,
      "thous": 2522,
      "stant": 2523,
      "--------": 2524,
      "letter": 2525,
      "Why": 2526,
      "victim": 2527,
      "Sunday": 2528,
      "inv": 2529,
      "istic": 2530,
      "struction": 2531,
      "improve": 2532,
      "gs": 2533,
      "store": 2534,
      "corpor": 2535,
      "quickly": 2536,
      "numbers": 2537,
      "connect": 2538,
      "science": 2539,
      "aled": 2540,
      "administration": 2541,
      "bud": 2542,
      "dy": 2543,
      "hi": 2544,
      "aily": 2545,
      "visit": 2546,
      "59": 2547,
      "ift": 2548,
      "58": 2549,
      "57": 2550,
      "wo": 2551,
      "Wal": 2552,
      "ases": 2553,
      "secret": 2554,
      "document": 2555,
      "Well": 2556,
      "ises": 2557,
      "Let": 2558,
      "atory": 2559,
      "print": 2560,
      "economy": 2561,
      "havi": 2562,
      "dd": 2563,
      "Cap": 2564,
      "OP": 2565,
      "separ": 2566,
      "leading": 2567,
      "promot": 2568,
      "written": 2569,
      "forces": 2570,
      "website": 2571,
      "spent": 2572,
      "perfect": 2573,
      "Fin": 2574,
      "cc": 2575,
      "http": 2576,
      "occur": 2577,
      "regular": 2578,
      "California": 2579,
      "500": 2580,
      "Up": 2581,
      "41": 2582,
      "liber": 2583,
      "user": 2584,
      "Hol": 2585,
      "morning": 2586,
      "Dece": 2587,
      "conduct": 2588,
      "neigh": 2589,
      "wants": 2590,
      "2008": 2591,
      "AD": 2592,
      "knew": 2593,
      "ological": 2594,
      "movement": 2595,
      "porters": 2596,
      "paid": 2597,
      "Satur": 2598,
      "December": 2599,
      "included": 2600,
      "prison": 2601,
      "Kore": 2602,
      "rect": 2603,
      "0000000000000": 2604,
      "tour": 2605,
      "respond": 2606,
      "growth": 2607,
      "population": 2608,
      "progress": 2609,
      "mist": 2610,
      "hael": 2611,
      "iment": 2612,
      "legisl": 2613,
      "prevent": 2614,
      "tried": 2615,
      "Tex": 2616,
      "table": 2617,
      "Pat": 2618,
      "arr": 2619,
      "demon": 2620,
      "looks": 2621,
      "suit": 2622,
      "2009": 2623,
      "Lon": 2624,
      "Muslim": 2625,
      "olution": 2626,
      "bul": 2627,
      "contract": 2628,
      "training": 2629,
      "natural": 2630,
      "King": 2631,
      "various": 2632,
      "language": 2633,
      "network": 2634,
      "aur": 2635,
      "Pre": 2636,
      "focus": 2637,
      "agement": 2638,
      "veh": 2639,
      "leader": 2640,
      "India": 2641,
      "song": 2642,
      "aming": 2643,
      "attention": 2644,
      "exam": 2645,
      "ceed": 2646,
      "Sup": 2647,
      "labor": 2648,
      "Gener": 2649,
      "brought": 2650,
      "ering": 2651,
      "citiz": 2652,
      "weet": 2653,
      "Iran": 2654,
      "behavi": 2655,
      "coin": 2656,
      "ST": 2657,
      "independ": 2658,
      "Play": 2659,
      "Senate": 2660,
      "stor": 2661,
      "03": 2662,
      "named": 2663,
      "shop": 2664,
      "mach": 2665,
      "Ben": 2666,
      "Times": 2667,
      "upon": 2668,
      "stead": 2669,
      "Mor": 2670,
      "ledge": 2671,
      "ients": 2672,
      "Bro": 2673,
      "sens": 2674,
      "slow": 2675,
      "Street": 2676,
      "path": 2677,
      "ico": 2678,
      "Rom": 2679,
      "secut": 2680,
      "systems": 2681,
      "changed": 2682,
      "giving": 2683,
      "Cent": 2684,
      "Police": 2685,
      "undred": 2686,
      "istan": 2687,
      "Most": 2688,
      "arily": 2689,
      "pread": 2690,
      "rules": 2691,
      "Center": 2692,
      "yond": 2693,
      "parents": 2694,
      "paper": 2695,
      "Read": 2696,
      "fit": 2697,
      "talking": 2698,
      "latest": 2699,
      "72": 2700,
      "73": 2701,
      "][": 2702,
      "parts": 2703,
      "sexual": 2704,
      "communic": 2705,
      "bir": 2706,
      "aves": 2707,
      "moving": 2708,
      "ape": 2709,
      "Sand": 2710,
      "door": 2711,
      "54": 2712,
      "Park": 2713,
      "plat": 2714,
      "brain": 2715,
      "ays": 2716,
      "strugg": 2717,
      "Party": 2718,
      "fix": 2719,
      "63": 2720,
      "Michael": 2721,
      "ordin": 2722,
      "conserv": 2723,
      "achie": 2724,
      "learn": 2725,
      "features": 2726,
      "center": 2727,
      "anch": 2728,
      "Oh": 2729,
      "immig": 2730,
      "craft": 2731,
      "placed": 2732,
      "considered": 2733,
      "Soc": 2734,
      "County": 2735,
      "forms": 2736,
      "Che": 2737,
      "medical": 2738,
      "sn": 2739,
      "hands": 2740,
      "assa": 2741,
      "remember": 2742,
      "quarter": 2743,
      "extreme": 2744,
      "FC": 2745,
      "addition": 2746,
      "sort": 2747,
      "map": 2748,
      "cru": 2749,
      "roy": 2750,
      "Ira": 2751,
      "stitution": 2752,
      "levels": 2753,
      "looked": 2754,
      "depart": 2755,
      "prior": 2756,
      "Sw": 2757,
      "except": 2758,
      "mill": 2759,
      "defense": 2760,
      "bank": 2761,
      "weight": 2762,
      "telligence": 2763,
      "London": 2764,
      "regul": 2765,
      "consist": 2766,
      "investigation": 2767,
      "writing": 2768,
      "wise": 2769,
      "guy": 2770,
      "install": 2771,
      "mur": 2772,
      "file": 2773,
      "calls": 2774,
      "critic": 2775,
      "Saturday": 2776,
      "fo": 2777,
      "FL": 2778,
      "increasing": 2779,
      "modern": 2780,
      "53": 2781,
      "mak": 2782,
      "suffer": 2783,
      "dollar": 2784,
      "jobs": 2785,
      "write": 2786,
      "Iraq": 2787,
      "incident": 2788,
      "erson": 2789,
      "chief": 2790,
      "ell": 2791,
      "journal": 2792,
      "cross": 2793,
      "bol": 2794,
      "completely": 2795,
      "zz": 2796,
      "message": 2797,
      "bel": 2798,
      "poor": 2799,
      "analys": 2800,
      "violence": 2801,
      "smo": 2802,
      "particularly": 2803,
      "James": 2804,
      "Lab": 2805,
      "hosp": 2806,
      "Air": 2807,
      "rit": 2808,
      "enced": 2809,
      "resour": 2810,
      "rict": 2811,
      "pped": 2812,
      "rench": 2813,
      "despite": 2814,
      "speech": 2815,
      "claims": 2816,
      "majority": 2817,
      "spr": 2818,
      "piece": 2819,
      "histor": 2820,
      "Over": 2821,
      "alone": 2822,
      "travel": 2823,
      "Many": 2824,
      "People": 2825,
      "tware": 2826,
      "zon": 2827,
      "198": 2828,
      "attacks": 2829,
      "spokes": 2830,
      "wall": 2831,
      "Since": 2832,
      "Lu": 2833,
      "rap": 2834,
      "carry": 2835,
      "Dan": 2836,
      "usually": 2837,
      "effort": 2838,
      "UN": 2839,
      "obvious": 2840,
      "climate": 2841,
      "hous": 2842,
      "Febr": 2843,
      "interesting": 2844,
      "Val": 2845,
      "kept": 2846,
      "February": 2847,
      "ension": 2848,
      "Willi": 2849,
      "native": 2850,
      "sett": 2851,
      "biggest": 2852,
      "surve": 2853,
      "middle": 2854,
      "although": 2855,
      "pul": 2856,
      "01": 2857,
      "eight": 2858,
      "ille": 2859,
      "pts": 2860,
      "Last": 2861,
      "ampion": 2862,
      "hundred": 2863,
      "mob": 2864,
      "society": 2865,
      "sometimes": 2866,
      "cf": 2867,
      "opportunity": 2868,
      "growing": 2869,
      "52": 2870,
      "soft": 2871,
      "stuff": 2872,
      "practice": 2873,
      "Bre": 2874,
      "note": 2875,
      "born": 2876,
      "xim": 2877,
      "served": 2878,
      "assist": 2879,
      "reedom": 2880,
      "exactly": 2881,
      "described": 2882,
      "ican": 2883,
      "ses": 2884,
      "required": 2885,
      "icles": 2886,
      "danger": 2887,
      "Ber": 2888,
      "entially": 2889,
      "contact": 2890,
      "Republicans": 2891,
      "thinking": 2892,
      "limited": 2893,
      "Ma": 2894,
      "psy": 2895,
      "spot": 2896,
      "cry": 2897,
      "books": 2898,
      "movie": 2899,
      "products": 2900,
      "bd": 2901,
      "League": 2902,
      "figure": 2903,
      "62": 2904,
      "MP": 2905,
      "certainly": 2906,
      "sor": 2907,
      "aries": 2908,
      "wonder": 2909,
      "starting": 2910,
      "item": 2911,
      "century": 2912,
      "stage": 2913,
      "stories": 2914,
      "surv": 2915,
      "culture": 2916,
      "extra": 2917,
      "gency": 2918,
      "deliver": 2919,
      "BI": 2920,
      "continued": 2921,
      "boy": 2922,
      "Texas": 2923,
      "officers": 2924,
      "inese": 2925,
      "lic": 2926,
      "vertisement": 2927,
      "summer": 2928,
      "Bu": 2929,
      "necessary": 2930,
      "ening": 2931,
      "forced": 2932,
      "finally": 2933,
      "Fed": 2934,
      "touch": 2935,
      "Tor": 2936,
      "reading": 2937,
      "Rich": 2938,
      "provided": 2939,
      "Net": 2940,
      "ously": 2941,
      "zer": 2942,
      "Democratic": 2943,
      "thus": 2944,
      "camer": 2945,
      "select": 2946,
      "www": 2947,
      "details": 2948,
      "comments": 2949,
      "vice": 2950,
      "ries": 2951,
      "sat": 2952,
      "bf": 2953,
      "rich": 2954,
      "forts": 2955,
      "Str": 2956,
      "standard": 2957,
      "laws": 2958,
      "Bill": 2959,
      "Chinese": 2960,
      "mic": 2961,
      "crow": 2962,
      "Jack": 2963,
      "option": 2964,
      "education": 2965,
      "region": 2966,
      "gone": 2967,
      "stra": 2968,
      "damage": 2969,
      "showed": 2970,
      "Bel": 2971,
      "tly": 2972,
      "scene": 2973,
      "income": 2974,
      "sle": 2975,
      "ened": 2976,
      "hur": 2977,
      "remains": 2978,
      "utions": 2979,
      "Image": 2980,
      "Mart": 2981,
      "imag": 2982,
      "happy": 2983,
      "perhaps": 2984,
      "costs": 2985,
      "correct": 2986,
      "designed": 2987,
      "challeng": 2988,
      "bes": 2989,
      "neg": 2990,
      "cele": 2991,
      "Day": 2992,
      "IP": 2993,
      "Apple": 2994,
      "ert": 2995,
      "lie": 2996,
      "wife": 2997,
      "bing": 2998,
      "purch": 2999,
      "51": 3000,
      "maintain": 3001,
      "enjoy": 3002,
      "appeared": 3003,
      "000000000000150": 3004,
      "choice": 3005,
      "multiple": 3006,
      "02": 3007,
      "appoint": 3008,
      "71": 3009,
      "core": 3010,
      "CE": 3011,
      "CO": 3012,
      "enge": 3013,
      "join": 3014,
      "cris": 3015,
      "Indian": 3016,
      "complain": 3017,
      "Because": 3018,
      "fan": 3019,
      "Ke": 3020,
      "lap": 3021,
      "....": 3022,
      "Green": 3023,
      "passed": 3024,
      "implement": 3025,
      "sets": 3026,
      "anced": 3027,
      "Like": 3028,
      "pair": 3029,
      "died": 3030,
      "tin": 3031,
      "wouldn": 3032,
      "61": 3033,
      "voters": 3034,
      "za": 3035,
      "High": 3036,
      "increased": 3037,
      "effects": 3038,
      "reality": 3039,
      "ec": 3040,
      "girl": 3041,
      "ification": 3042,
      "meaning": 3043,
      "throw": 3044,
      "kids": 3045,
      "nom": 3046,
      "football": 3047,
      "rank": 3048,
      "strict": 3049,
      "lled": 3050,
      "aa": 3051,
      "sec": 3052,
      "epis": 3053,
      "inde": 3054,
      "gar": 3055,
      "ishing": 3056,
      "beyond": 3057,
      "idge": 3058,
      "ees": 3059,
      "efforts": 3060,
      "ables": 3061,
      "claimed": 3062,
      "guys": 3063,
      "teen": 3064,
      "bum": 3065,
      "directly": 3066,
      "student": 3067,
      "central": 3068,
      "towards": 3069,
      "clean": 3070,
      "Au": 3071,
      "df": 3072,
      "agon": 3073,
      "title": 3074,
      "standing": 3075,
      "includes": 3076,
      "complex": 3077,
      "reli": 3078,
      "00000000000000The": 3079,
      "celebr": 3080,
      "feed": 3081,
      "skill": 3082,
      "couldn": 3083,
      "safety": 3084,
      "Associ": 3085,
      "drive": 3086,
      "Wind": 3087,
      "Ange": 3088,
      "(@": 3089,
      "Def": 3090,
      "Democrats": 3091,
      "plant": 3092,
      "ET": 3093,
      "immediately": 3094,
      "blood": 3095,
      "rates": 3096,
      "ida": 3097,
      "appears": 3098,
      "Although": 3099,
      "opin": 3100,
      "ahead": 3101,
      "charge": 3102,
      "Super": 3103,
      "Sci": 3104,
      "recomm": 3105,
      "Tod": 3106,
      "Cha": 3107,
      "agency": 3108,
      "Tom": 3109,
      "tract": 3110,
      "throughout": 3111,
      "Bur": 3112,
      "league": 3113,
      "b8": 3114,
      "battle": 3115,
      "ode": 3116,
      "additional": 3117,
      "antic": 3118,
      "reng": 3119,
      "consum": 3120,
      "bc": 3121,
      "umb": 3122,
      "Minister": 3123,
      "English": 3124,
      "pressure": 3125,
      "Gover": 3126,
      "mix": 3127,
      "Ham": 3128,
      "EC": 3129,
      "relative": 3130,
      "software": 3131,
      "toward": 3132,
      "religious": 3133,
      "French": 3134,
      "ov": 3135,
      "maybe": 3136,
      "iers": 3137,
      "debate": 3138,
      "suspect": 3139,
      "thousands": 3140,
      "Mac": 3141,
      "beginning": 3142,
      "EU": 3143,
      "ware": 3144,
      "officer": 3145,
      "resh": 3146,
      "organization": 3147,
      "aughter": 3148,
      "stream": 3149,
      "advant": 3150,
      "lease": 3151,
      "flow": 3152,
      "property": 3153,
      "largest": 3154,
      "PS": 3155,
      "sites": 3156,
      "Sim": 3157,
      "George": 3158,
      "receive": 3159,
      "command": 3160,
      "budget": 3161,
      "computer": 3162,
      "dark": 3163,
      "positive": 3164,
      "estim": 3165,
      "distribut": 3166,
      "nature": 3167,
      "gender": 3168,
      "bri": 3169,
      "PM": 3170,
      "mitted": 3171,
      "b9": 3172,
      "copy": 3173,
      "hab": 3174,
      "Reg": 3175,
      "blog": 3176,
      "device": 3177,
      "atever": 3178,
      "analysis": 3179,
      "trust": 3180,
      "ek": 3181,
      "color": 3182,
      "conditions": 3183,
      "mat": 3184,
      "signed": 3185,
      "helped": 3186,
      "uk": 3187,
      "credit": 3188,
      "alleged": 3189,
      "setting": 3190,
      "venue": 3191,
      "nuclear": 3192,
      "normal": 3193,
      "yn": 3194,
      "failed": 3195,
      "adem": 3196,
      "Smith": 3197,
      "General": 3198,
      "ops": 3199,
      "sea": 3200,
      "unique": 3201,
      "Mid": 3202,
      "owners": 3203,
      "Yes": 3204,
      "reasons": 3205,
      "stock": 3206,
      "sched": 3207,
      "iver": 3208,
      "Mex": 3209,
      "iff": 3210,
      "myself": 3211,
      "vention": 3212,
      "?\"": 3213,
      "OT": 3214,
      "encour": 3215,
      "encies": 3216,
      "fear": 3217,
      "berg": 3218,
      "college": 3219,
      "era": 3220,
      "conference": 3221,
      "difference": 3222,
      "hest": 3223,
      "iles": 3224,
      "German": 3225,
      "syn": 3226,
      "powerful": 3227,
      "compared": 3228,
      "mental": 3229,
      "Thom": 3230,
      "insur": 3231,
      "eyes": 3232,
      "hero": 3233,
      "capt": 3234,
      "places": 3235,
      "During": 3236,
      "instit": 3237,
      "Syria": 3238,
      "wing": 3239,
      "prep": 3240,
      "Christian": 3241,
      "PC": 3242,
      "shown": 3243,
      "allows": 3244,
      "chair": 3245,
      "thers": 3246,
      "Other": 3247,
      "frequ": 3248,
      "section": 3249,
      "Trans": 3250,
      "fol": 3251,
      "Sal": 3252,
      "peace": 3253,
      "confir": 3254,
      "characters": 3255,
      "stic": 3256,
      "Jer": 3257,
      "successful": 3258,
      "bab": 3259,
      "spending": 3260,
      "presidential": 3261,
      "stitute": 3262,
      "solute": 3263,
      "aly": 3264,
      "origin": 3265,
      "predict": 3266,
      "Two": 3267,
      "eye": 3268,
      "beat": 3269,
      "Your": 3270,
      "candidate": 3271,
      "cool": 3272,
      "crime": 3273,
      "streng": 3274,
      "ultim": 3275,
      "ston": 3276,
      "ws": 3277,
      "pic": 3278,
      "bound": 3279,
      "avoid": 3280,
      "rock": 3281,
      "physical": 3282,
      "convers": 3283,
      "vari": 3284,
      "names": 3285,
      "International": 3286,
      "Mer": 3287,
      "executive": 3288,
      "developed": 3289,
      "acqu": 3290,
      "poll": 3291,
      "upd": 3292,
      "confl": 3293,
      "lose": 3294,
      "nice": 3295,
      "prem": 3296,
      "drink": 3297,
      "treatment": 3298,
      "Mark": 3299,
      "politics": 3300,
      "Mag": 3301,
      "Advertisement": 3302,
      "earch": 3303,
      "analy": 3304,
      "scr": 3305,
      "ural": 3306,
      "cise": 3307,
      "schools": 3308,
      "ufact": 3309,
      "counts": 3310,
      "Vie": 3311,
      "determin": 3312,
      "Gold": 3313,
      "Earth": 3314,
      "Mal": 3315,
      "fine": 3316,
      "IA": 3317,
      "willing": 3318,
      "meant": 3319,
      "2007": 3320,
      "Australia": 3321,
      "Bay": 3322,
      "emot": 3323,
      "Arab": 3324,
      "criminal": 3325,
      "followed": 3326,
      "000000000000015": 3327,
      "propos": 3328,
      "truth": 3329,
      "rise": 3330,
      "eventually": 3331,
      "gives": 3332,
      "inno": 3333,
      "cture": 3334,
      "operation": 3335,
      "families": 3336,
      "easily": 3337,
      "chain": 3338,
      "astic": 3339,
      "School": 3340,
      "):": 3341,
      "yourself": 3342,
      "itor": 3343,
      "impress": 3344,
      "Germany": 3345,
      "Ano": 3346,
      "overall": 3347,
      "mun": 3348,
      "kick": 3349,
      "station": 3350,
      "Law": 3351,
      "hon": 3352,
      "ux": 3353,
      "anks": 3354,
      "intelligence": 3355,
      "weapons": 3356,
      "Also": 3357,
      "scale": 3358,
      "lands": 3359,
      "mail": 3360,
      "smart": 3361,
      "Alex": 3362,
      "Rev": 3363,
      "fighting": 3364,
      "cities": 3365,
      "rif": 3366,
      "ideas": 3367,
      "omen": 3368,
      "domin": 3369,
      "SA": 3370,
      "Flor": 3371,
      "green": 3372,
      "fee": 3373,
      "liter": 3374,
      "Another": 3375,
      "beaut": 3376,
      "minim": 3377,
      "senior": 3378,
      "walk": 3379,
      "crisis": 3380,
      "Ter": 3381,
      "els": 3382,
      "activity": 3383,
      "status": 3384,
      "Follow": 3385,
      "rule": 3386,
      "ease": 3387,
      "integr": 3388,
      "Union": 3389,
      "cat": 3390,
      "murder": 3391,
      "display": 3392,
      "c8": 3393,
      "fortun": 3394,
      "Scott": 3395,
      "brand": 3396,
      "lection": 3397,
      "Ty": 3398,
      "send": 3399,
      "Cal": 3400,
      "decades": 3401,
      "ta": 3402,
      "projects": 3403,
      "aling": 3404,
      "straight": 3405,
      "save": 3406,
      "aste": 3407,
      "democr": 3408,
      "eth": 3409,
      "sales": 3410,
      "CH": 3411,
      "iced": 3412,
      "ding": 3413,
      "comfort": 3414,
      "noted": 3415,
      "apparen": 3416,
      "Rob": 3417,
      "compe": 3418,
      "funding": 3419,
      "benefits": 3420,
      "sou": 3421,
      "Stud": 3422,
      "calling": 3423,
      "Vir": 3424,
      "Ry": 3425,
      "expand": 3426,
      "concept": 3427,
      "ari": 3428,
      "highly": 3429,
      "Hillary": 3430,
      "riage": 3431,
      "challenge": 3432,
      "continues": 3433,
      "manager": 3434,
      "ission": 3435,
      "session": 3436,
      "goals": 3437,
      "commer": 3438,
      "previously": 3439,
      "See": 3440,
      "Internet": 3441,
      "ivity": 3442,
      "wait": 3443,
      "psych": 3444,
      "doub": 3445,
      "individuals": 3446,
      "itely": 3447,
      "bomb": 3448,
      "pun": 3449,
      "La": 3450,
      "minor": 3451,
      "Council": 3452,
      "clearly": 3453,
      "primary": 3454,
      "measure": 3455,
      "org": 3456,
      "mas": 3457,
      "spread": 3458,
      "scen": 3459,
      "adding": 3460,
      "aware": 3461,
      "customers": 3462,
      "Sha": 3463,
      "serve": 3464,
      "church": 3465,
      "knowledge": 3466,
      "larger": 3467,
      "ado": 3468,
      "seeing": 3469,
      "c9": 3470,
      "birth": 3471,
      "Any": 3472,
      "grand": 3473,
      "winning": 3474,
      "moun": 3475,
      "asy": 3476,
      "Press": 3477,
      "ateg": 3478,
      "Are": 3479,
      "300": 3480,
      "resources": 3481,
      "voice": 3482,
      "feet": 3483,
      "ube": 3484,
      "phen": 3485,
      "ville": 3486,
      "Sam": 3487,
      "seemed": 3488,
      "greater": 3489,
      "shooting": 3490,
      "tural": 3491,
      "Once": 3492,
      "pi": 3493,
      "Sub": 3494,
      "Who": 3495,
      "turning": 3496,
      "favorite": 3497,
      "closed": 3498,
      "reached": 3499,
      "programs": 3500,
      "Big": 3501,
      "enem": 3502,
      "agreement": 3503,
      "location": 3504,
      "options": 3505,
      "Chic": 3506,
      "traditional": 3507,
      "manufact": 3508,
      "gree": 3509,
      "studies": 3510,
      "drop": 3511,
      "England": 3512,
      "border": 3513,
      "stick": 3514,
      "female": 3515,
      "absolute": 3516,
      "rare": 3517,
      "isions": 3518,
      "Bit": 3519,
      "Gl": 3520,
      "IL": 3521,
      "dre": 3522,
      "establish": 3523,
      "caused": 3524,
      "virt": 3525,
      "PR": 3526,
      "revol": 3527,
      "knows": 3528,
      "etro": 3529,
      "sources": 3530,
      "stood": 3531,
      "quot": 3532,
      "reflect": 3533,
      "demonstr": 3534,
      "critical": 3535,
      "catch": 3536,
      "a8": 3537,
      "cum": 3538,
      "gold": 3539,
      "goti": 3540,
      "spend": 3541,
      "Mil": 3542,
      "creating": 3543,
      "CN": 3544,
      "Micro": 3545,
      "frame": 3546,
      "Florida": 3547,
      "organiz": 3548,
      "Health": 3549,
      "Art": 3550,
      "autom": 3551,
      "shut": 3552,
      "Ken": 3553,
      "iving": 3554,
      "bs": 3555,
      "Cur": 3556,
      "BA": 3557,
      "Chicago": 3558,
      "produced": 3559,
      "Mike": 3560,
      "charges": 3561,
      "sey": 3562,
      "dog": 3563,
      "enty": 3564,
      "basic": 3565,
      "freedom": 3566,
      "d8": 3567,
      "witch": 3568,
      "raised": 3569,
      "asking": 3570,
      "fat": 3571,
      "trou": 3572,
      "ING": 3573,
      "EL": 3574,
      "mostly": 3575,
      "ength": 3576,
      "GB": 3577,
      "a9": 3578,
      "Ve": 3579,
      "fal": 3580,
      "France": 3581,
      "hospital": 3582,
      "edge": 3583,
      "album": 3584,
      "Lou": 3585,
      "prices": 3586,
      "employees": 3587,
      "wealth": 3588,
      "supposed": 3589,
      "types": 3590,
      "produce": 3591,
      "pool": 3592,
      "sun": 3593,
      "Under": 3594,
      "PA": 3595,
      "ram": 3596,
      "happens": 3597,
      "Those": 3598,
      "researchers": 3599,
      "stain": 3600,
      "actual": 3601,
      "orders": 3602,
      "Instead": 3603,
      "posted": 3604,
      "negoti": 3605,
      "asc": 3606,
      "haven": 3607,
      "policies": 3608,
      "fuel": 3609,
      "apped": 3610,
      "effic": 3611,
      "patients": 3612,
      "cars": 3613,
      "Game": 3614,
      "concerns": 3615,
      "values": 3616,
      "ensure": 3617,
      "rant": 3618,
      "usion": 3619,
      "mechan": 3620,
      "clud": 3621,
      "uana": 3622,
      "street": 3623,
      "responsible": 3624,
      "arms": 3625,
      "minister": 3626,
      "Palest": 3627,
      "behavior": 3628,
      "leaving": 3629,
      "weak": 3630,
      "tect": 3631,
      "iled": 3632,
      "Del": 3633,
      "neighbor": 3634,
      "ato": 3635,
      "Wall": 3636,
      "etc": 3637,
      "authorities": 3638,
      "iction": 3639,
      "2f": 3640,
      "temper": 3641,
      "nine": 3642,
      "enforce": 3643,
      "Today": 3644,
      "Tech": 3645,
      "eli": 3646,
      "eff": 3647,
      "Add": 3648,
      "platform": 3649,
      "Out": 3650,
      "appropri": 3651,
      "Bush": 3652,
      "application": 3653,
      "dire": 3654,
      "images": 3655,
      "ota": 3656,
      "gent": 3657,
      "ML": 3658,
      "Franc": 3659,
      "Secret": 3660,
      "assu": 3661,
      "offered": 3662,
      "roid": 3663,
      "whatever": 3664,
      "agreed": 3665,
      "massive": 3666,
      "resist": 3667,
      "tend": 3668,
      "picture": 3669,
      "Mad": 3670,
      "mobile": 3671,
      "NA": 3672,
      "1f": 3673,
      "Commit": 3674,
      "citizens": 3675,
      "Pri": 3676,
      "sad": 3677,
      "erve": 3678,
      "d9": 3679,
      "ighest": 3680,
      "iful": 3681,
      "3f": 3682,
      "oppon": 3683,
      "ijuana": 3684,
      "2006": 3685,
      "prosecut": 3686,
      "lling": 3687,
      "THE": 3688,
      "weekend": 3689,
      "lets": 3690,
      "confirmed": 3691,
      "MO": 3692,
      "revealed": 3693,
      ".'": 3694,
      "Western": 3695,
      "Johnson": 3696,
      "believed": 3697,
      "iar": 3698,
      "curren": 3699,
      "rants": 3700,
      "advis": 3701,
      "blue": 3702,
      "rating": 3703,
      "heavy": 3704,
      "ga": 3705,
      "choose": 3706,
      "feeling": 3707,
      "judge": 3708,
      "limit": 3709,
      "Mill": 3710,
      "solution": 3711,
      "effective": 3712,
      "strategy": 3713,
      "Hum": 3714,
      "Liber": 3715,
      "records": 3716,
      "brief": 3717,
      "opening": 3718,
      "advantage": 3719,
      "Chris": 3720,
      "learned": 3721,
      "iel": 3722,
      "aud": 3723,
      "BS": 3724,
      "thes": 3725,
      "east": 3726,
      "parties": 3727,
      "Justice": 3728,
      "7f": 3729,
      "mir": 3730,
      "lawy": 3731,
      "condition": 3732,
      "daily": 3733,
      "runs": 3734,
      "Sto": 3735,
      "orial": 3736,
      "independent": 3737,
      "coal": 3738,
      "benefit": 3739,
      "arian": 3740,
      "vs": 3741,
      "opened": 3742,
      "Fox": 3743,
      "interested": 3744,
      "slight": 3745,
      "mod": 3746,
      "whom": 3747,
      "highest": 3748,
      "arrested": 3749,
      "https": 3750,
      "bod": 3751,
      "patter": 3752,
      "infr": 3753,
      "Windows": 3754,
      "devices": 3755,
      "Los": 3756,
      "influence": 3757,
      "san": 3758,
      "gers": 3759,
      "profit": 3760,
      "Francis": 3761,
      "replace": 3762,
      "trial": 3763,
      "Office": 3764,
      "telling": 3765,
      "opposition": 3766,
      "supported": 3767,
      "learning": 3768,
      "offers": 3769,
      "Security": 3770,
      "showing": 3771,
      "vill": 3772,
      "tempor": 3773,
      "6f": 3774,
      "vin": 3775,
      "Sanders": 3776,
      "Please": 3777,
      "digital": 3778,
      "provides": 3779,
      "mig": 3780,
      "Direct": 3781,
      "AA": 3782,
      "operations": 3783,
      "b5": 3784,
      "generation": 3785,
      "residents": 3786,
      "Research": 3787,
      "defend": 3788,
      "understanding": 3789,
      "MS": 3790,
      "fant": 3791,
      "existing": 3792,
      "management": 3793,
      "2e": 3794,
      "3e": 3795,
      "electric": 3796,
      "liament": 3797,
      "Uk": 3798,
      "amaz": 3799,
      "Dist": 3800,
      "NFL": 3801,
      "definitely": 3802,
      "ancy": 3803,
      "Commission": 3804,
      "belief": 3805,
      "prefer": 3806,
      "Korea": 3807,
      "pitch": 3808,
      "Both": 3809,
      "TO": 3810,
      "camera": 3811,
      "ami": 3812,
      "click": 3813,
      "accur": 3814,
      "marriage": 3815,
      "Committee": 3816,
      "err": 3817,
      "advoc": 3818,
      "justice": 3819,
      "Islamic": 3820,
      "Port": 3821,
      "debt": 3822,
      "explained": 3823,
      "memory": 3824,
      "inner": 3825,
      "Brown": 3826,
      "Cup": 3827,
      "tack": 3828,
      "1e": 3829,
      "investment": 3830,
      "charged": 3831,
      "views": 3832,
      "server": 3833,
      "equip": 3834,
      "construction": 3835,
      "LE": 3836,
      "4f": 3837,
      "jump": 3838,
      "dollars": 3839,
      "double": 3840,
      "sch": 3841,
      "shock": 3842,
      "Will": 3843,
      "atures": 3844,
      "oo": 3845,
      "Time": 3846,
      "DA": 3847,
      "MA": 3848,
      "rian": 3849,
      "makers": 3850,
      "guard": 3851,
      "bled": 3852,
      "gather": 3853,
      "dem": 3854,
      "Prof": 3855,
      "yes": 3856,
      "Govern": 3857,
      "driving": 3858,
      "ingly": 3859,
      "Lin": 3860,
      "Found": 3861,
      "associated": 3862,
      "ito": 3863,
      "itter": 3864,
      "worse": 3865,
      "affic": 3866,
      "formation": 3867,
      "politic": 3868,
      "sole": 3869,
      "professional": 3870,
      "notes": 3871,
      "illegal": 3872,
      "bour": 3873,
      "generally": 3874,
      "initial": 3875,
      "gay": 3876,
      "ule": 3877,
      "millions": 3878,
      "Despite": 3879,
      "theory": 3880,
      "Back": 3881,
      "b0": 3882,
      "plus": 3883,
      "occas": 3884,
      "Rel": 3885,
      "odes": 3886,
      "Tri": 3887,
      "false": 3888,
      "stone": 3889,
      "pm": 3890,
      "opinion": 3891,
      "fare": 3892,
      "ored": 3893,
      "purpose": 3894,
      "committee": 3895,
      "Sil": 3896,
      "Ver": 3897,
      "Mur": 3898,
      "television": 3899,
      "Que": 3900,
      "Canadian": 3901,
      "spl": 3902,
      "lor": 3903,
      "destroy": 3904,
      "tough": 3905,
      "Robert": 3906,
      "species": 3907,
      "proposed": 3908,
      "mentioned": 3909,
      "basis": 3910,
      "sche": 3911,
      "floor": 3912,
      "ads": 3913,
      "kid": 3914,
      "extremely": 3915,
      "miles": 3916,
      "faith": 3917,
      "Their": 3918,
      "length": 3919,
      "solid": 3920,
      "negative": 3921,
      "figh": 3922,
      "partners": 3923,
      "hundreds": 3924,
      "machine": 3925,
      "2000": 3926,
      "conservative": 3927,
      "7e": 3928,
      "Jud": 3929,
      "Leg": 3930,
      "controvers": 3931,
      "achieve": 3932,
      "bow": 3933,
      "rob": 3934,
      "UT": 3935,
      "bottom": 3936,
      "amed": 3937,
      "usual": 3938,
      "________": 3939,
      "SS": 3940,
      "valid": 3941,
      "stated": 3942,
      "lif": 3943,
      "uries": 3944,
      "flag": 3945,
      "announce": 3946,
      "hack": 3947,
      "Jim": 3948,
      "minute": 3949,
      "shared": 3950,
      "Jones": 3951,
      "constant": 3952,
      "PD": 3953,
      "Sur": 3954,
      "Israeli": 3955,
      "unk": 3956,
      "obtain": 3957,
      "becoming": 3958,
      "surround": 3959,
      "becomes": 3960,
      "ume": 3961,
      "holding": 3962,
      "hair": 3963,
      "##": 3964,
      "IR": 3965,
      "accom": 3966,
      "6e": 3967,
      "wild": 3968,
      "easier": 3969,
      "afford": 3970,
      "restrict": 3971,
      "scientists": 3972,
      "Good": 3973,
      "aked": 3974,
      "exer": 3975,
      "DC": 3976,
      "Miss": 3977,
      "ni": 3978,
      "inch": 3979,
      "Atl": 3980,
      "accused": 3981,
      "gi": 3982,
      "episode": 3983,
      "marijuana": 3984,
      "yal": 3985,
      "phil": 3986,
      "Bank": 3987,
      "4e": 3988,
      "legislation": 3989,
      "Er": 3990,
      "structure": 3991,
      "ault": 3992,
      "complet": 3993,
      "putting": 3994,
      "Bal": 3995,
      "trig": 3996,
      "watching": 3997,
      "abilities": 3998,
      "Church": 3999,
      "cash": 4000,
      "3d": 4001,
      "ka": 4002,
      "Microsoft": 4003,
      "sleep": 4004,
      "reduce": 4005,
      "cards": 4006,
      "imin": 4007,
      "occup": 4008,
      "fresh": 4009,
      "rum": 4010,
      "atically": 4011,
      "airs": 4012,
      "ara": 4013,
      "victims": 4014,
      "====": 4015,
      "identified": 4016,
      "Web": 4017,
      "notice": 4018,
      "issued": 4019,
      "Britain": 4020,
      "IV": 4021,
      "instance": 4022,
      "2005": 4023,
      "sid": 4024,
      "Carol": 4025,
      "doubt": 4026,
      "documents": 4027,
      "2d": 4028,
      "internet": 4029,
      "plays": 4030,
      "attor": 4031,
      "ining": 4032,
      "witness": 4033,
      "daughter": 4034,
      "direction": 4035,
      "testing": 4036,
      "ered": 4037,
      "master": 4038,
      "hun": 4039,
      "dangerous": 4040,
      "raz": 4041,
      "sto": 4042,
      "hus": 4043,
      "older": 4044,
      "Institute": 4045,
      "Yet": 4046,
      "stress": 4047,
      "victory": 4048,
      "UR": 4049,
      "tren": 4050,
      "apt": 4051,
      "radio": 4052,
      "FBI": 4053,
      "argument": 4054,
      "cro": 4055,
      "Gar": 4056,
      "audience": 4057,
      "ality": 4058,
      "nic": 4059,
      "consu": 4060,
      "leadership": 4061,
      "returned": 4062,
      "vation": 4063,
      "LA": 4064,
      "Fore": 4065,
      "background": 4066,
      "driver": 4067,
      "owner": 4068,
      "separate": 4069,
      "categ": 4070,
      "ghan": 4071,
      "discovered": 4072,
      "communities": 4073,
      "famous": 4074,
      "Ros": 4075,
      "hearing": 4076,
      "worst": 4077,
      "unit": 4078,
      "vehicle": 4079,
      "400": 4080,
      "Ukrain": 4081,
      "Pak": 4082,
      "Sou": 4083,
      "hone": 4084,
      "commercial": 4085,
      "launched": 4086,
      "dome": 4087,
      "keeping": 4088,
      "north": 4089,
      "Tre": 4090,
      "2018": 4091,
      "champion": 4092,
      "Jewish": 4093,
      "decade": 4094,
      "ya": 4095,
      "micro": 4096,
      "incredi": 4097,
      "zen": 4098,
      "Open": 4099,
      "missed": 4100,
      "coverage": 4101,
      "department": 4102,
      "Ama": 4103,
      "lished": 4104,
      "86": 4105,
      "oppos": 4106,
      "1d": 4107,
      "icated": 4108,
      "pow": 4109,
      "transfer": 4110,
      "bling": 4111,
      "none": 4112,
      "tools": 4113,
      "earth": 4114,
      "iven": 4115,
      "Team": 4116,
      "Jeff": 4117,
      "Ms": 4118,
      "plane": 4119,
      "c5": 4120,
      "ounds": 4121,
      "tests": 4122,
      "repeated": 4123,
      "istics": 4124,
      "writer": 4125,
      "surface": 4126,
      "traffic": 4127,
      "mes": 4128,
      "acity": 4129,
      "Mat": 4130,
      "initi": 4131,
      "competition": 4132,
      "iring": 4133,
      "Ryan": 4134,
      "graphy": 4135,
      "please": 4136,
      "draft": 4137,
      "degree": 4138,
      "han": 4139,
      "hate": 4140,
      "supporters": 4141,
      "items": 4142,
      "Gree": 4143,
      "allowing": 4144,
      "voted": 4145,
      "drugs": 4146,
      "focused": 4147,
      "cks": 4148,
      "sym": 4149,
      "suggested": 4150,
      "missing": 4151,
      "finding": 4152,
      "USA": 4153,
      "rated": 4154,
      "!!": 4155,
      "Fire": 4156,
      "compar": 4157,
      "Ap": 4158,
      "concerned": 4159,
      "Richard": 4160,
      "mous": 4161,
      "farm": 4162,
      "steps": 4163,
      "ships": 4164,
      "established": 4165,
      "located": 4166,
      "ava": 4167,
      "spoke": 4168,
      "raise": 4169,
      "bid": 4170,
      "rep": 4171,
      "sports": 4172,
      "rupt": 4173,
      "andom": 4174,
      "tact": 4175,
      "anta": 4176,
      "Great": 4177,
      "Free": 4178,
      "disease": 4179,
      "lad": 4180,
      "restaur": 4181,
      "tip": 4182,
      "tun": 4183,
      "strength": 4184,
      "Palestin": 4185,
      "partner": 4186,
      "Book": 4187,
      "itude": 4188,
      "HT": 4189,
      "utin": 4190,
      "cript": 4191,
      "()": 4192,
      "bac": 4193,
      "compon": 4194,
      "smaller": 4195,
      "icy": 4196,
      "aker": 4197,
      "ght": 4198,
      "insurance": 4199,
      "strateg": 4200,
      "transport": 4201,
      "entirely": 4202,
      "lege": 4203,
      "experiment": 4204,
      "ano": 4205,
      "conflict": 4206,
      "inct": 4207,
      "cook": 4208,
      "consequ": 4209,
      "000000000000147": 4210,
      "osop": 4211,
      "crowd": 4212,
      "assault": 4213,
      "GOP": 4214,
      "infl": 4215,
      "grade": 4216,
      "bag": 4217,
      "changing": 4218,
      "annual": 4219,
      "animals": 4220,
      "c0": 4221,
      "Japanese": 4222,
      "ester": 4223,
      "familiar": 4224,
      "aspect": 4225,
      "Afghan": 4226,
      "crash": 4227,
      "ults": 4228,
      "requires": 4229,
      "Home": 4230,
      "finished": 4231,
      "itation": 4232,
      "Mod": 4233,
      "ctors": 4234,
      "corporate": 4235,
      "download": 4236,
      "Ir": 4237,
      "union": 4238,
      "joined": 4239,
      "African": 4240,
      "files": 4241,
      "largely": 4242,
      "caught": 4243,
      "aran": 4244,
      "update": 4245,
      "talent": 4246,
      "strike": 4247,
      "husband": 4248,
      "zone": 4249,
      "reform": 4250,
      "grant": 4251,
      "candidates": 4252,
      "hib": 4253,
      "activities": 4254,
      "Jon": 4255,
      "Pakistan": 4256,
      "guess": 4257,
      "eat": 4258,
      "lip": 4259,
      "businesses": 4260,
      "izes": 4261,
      "7d": 4262,
      "subscri": 4263,
      "speaking": 4264,
      "truly": 4265,
      "Bern": 4266,
      "6d": 4267,
      "Martin": 4268,
      "Comp": 4269,
      "enforcement": 4270,
      "Frank": 4271,
      "brary": 4272,
      "assess": 4273,
      "believes": 4274,
      "Louis": 4275,
      "icon": 4276,
      "Africa": 4277,
      "concern": 4278,
      "strain": 4279,
      "RO": 4280,
      "planning": 4281,
      "Sol": 4282,
      "register": 4283,
      "park": 4284,
      "sustain": 4285,
      "refuge": 4286,
      "abuse": 4287,
      "Mexico": 4288,
      "outs": 4289,
      "marks": 4290,
      "fi": 4291,
      "shall": 4292,
      "lights": 4293,
      "decisions": 4294,
      "nar": 4295,
      "aj": 4296,
      "selling": 4297,
      "rig": 4298,
      "waiting": 4299,
      "Thomas": 4300,
      "presence": 4301,
      "gins": 4302,
      "Jose": 4303,
      "olf": 4304,
      "offensive": 4305,
      "Association": 4306,
      "CEO": 4307,
      "].": 4308,
      "lon": 4309,
      "trail": 4310,
      "rout": 4311,
      "introduced": 4312,
      "south": 4313,
      "Android": 4314,
      "girls": 4315,
      "cket": 4316,
      "Virgin": 4317,
      "Peter": 4318,
      "wear": 4319,
      "tells": 4320,
      "fourth": 4321,
      "cells": 4322,
      "andon": 4323,
      "balance": 4324,
      "banks": 4325,
      "eg": 4326,
      "managed": 4327,
      "150": 4328,
      "mut": 4329,
      "Government": 4330,
      "score": 4331,
      "beautiful": 4332,
      "brow": 4333,
      "Public": 4334,
      "porter": 4335,
      "cancer": 4336,
      "holds": 4337,
      "injury": 4338,
      "funds": 4339,
      "housing": 4340,
      "bass": 4341,
      "Watch": 4342,
      "Cle": 4343,
      "a5": 4344,
      "employment": 4345,
      "4d": 4346,
      "fish": 4347,
      "mm": 4348,
      "measures": 4349,
      "Gen": 4350,
      "aggress": 4351,
      "Mary": 4352,
      "sides": 4353,
      "iling": 4354,
      "auto": 4355,
      "Den": 4356,
      "exclus": 4357,
      "recommend": 4358,
      "a0": 4359,
      "spirit": 4360,
      "IM": 4361,
      "spokesman": 4362,
      "faces": 4363,
      "hasn": 4364,
      "homes": 4365,
      "models": 4366,
      "removed": 4367,
      "loved": 4368,
      "reject": 4369,
      "aps": 4370,
      "providing": 4371,
      "appre": 4372,
      "Angeles": 4373,
      "fle": 4374,
      "mical": 4375,
      "interests": 4376,
      "ounder": 4377,
      "discussion": 4378,
      "connection": 4379,
      "portion": 4380,
      "context": 4381,
      "useful": 4382,
      "stopped": 4383,
      "Group": 4384,
      "lived": 4385,
      "oring": 4386,
      "inger": 4387,
      "conversation": 4388,
      "techni": 4389,
      "collection": 4390,
      "rou": 4391,
      "committed": 4392,
      "novel": 4393,
      "Ko": 4394,
      "rial": 4395,
      "Prime": 4396,
      "mere": 4397,
      "flight": 4398,
      "Service": 4399,
      "identity": 4400,
      "cuts": 4401,
      "commission": 4402,
      "dat": 4403,
      "Media": 4404,
      "veter": 4405,
      "presents": 4406,
      "newsp": 4407,
      "azine": 4408,
      "NC": 4409,
      "Pan": 4410,
      "button": 4411,
      "scientific": 4412,
      "corner": 4413,
      "****": 4414,
      "formed": 4415,
      "killing": 4416,
      "mad": 4417,
      "96": 4418,
      "protection": 4419,
      "acknow": 4420,
      "batter": 4421,
      "exchange": 4422,
      "heat": 4423,
      "laugh": 4424,
      "figures": 4425,
      "Ok": 4426,
      "vul": 4427,
      "Hel": 4428,
      "Supreme": 4429,
      "Gal": 4430,
      "brother": 4431,
      "healthy": 4432,
      "igned": 4433,
      "bin": 4434,
      "Army": 4435,
      "Down": 4436,
      "rot": 4437,
      "planned": 4438,
      "Joe": 4439,
      "Bef": 4440,
      "2004": 4441,
      "liance": 4442,
      "mine": 4443,
      "feels": 4444,
      "revolution": 4445,
      "irt": 4446,
      "trip": 4447,
      "thanks": 4448,
      "window": 4449,
      "supply": 4450,
      "otherwise": 4451,
      "College": 4452,
      "skin": 4453,
      "vant": 4454,
      "relatively": 4455,
      "Ari": 4456,
      "bell": 4457,
      "igan": 4458,
      "arrived": 4459,
      "tweet": 4460,
      "planet": 4461,
      "sky": 4462,
      "promise": 4463,
      "Before": 4464,
      "expensive": 4465,
      "therefore": 4466,
      "operating": 4467,
      "isation": 4468,
      "Images": 4469,
      "ronic": 4470,
      "circum": 4471,
      "prove": 4472,
      "optim": 4473,
      "igno": 4474,
      "slightly": 4475,
      "cb": 4476,
      "prop": 4477,
      "paying": 4478,
      "Jes": 4479,
      "survey": 4480,
      "suff": 4481,
      "possibly": 4482,
      "markets": 4483,
      "appropriate": 4484,
      "immigration": 4485,
      "Bow": 4486,
      "hang": 4487,
      "Year": 4488,
      "Phone": 4489,
      "84": 4490,
      "fortunately": 4491,
      "accident": 4492,
      "dden": 4493,
      "Bob": 4494,
      "task": 4495,
      "nut": 4496,
      "Secretary": 4497,
      "skills": 4498,
      "Top": 4499,
      "sho": 4500,
      "losing": 4501,
      "Where": 4502,
      "seek": 4503,
      "Power": 4504,
      "Plan": 4505,
      "atest": 4506,
      "Look": 4507,
      "defensive": 4508,
      "ander": 4509,
      "enses": 4510,
      "Blue": 4511,
      "McC": 4512,
      "Show": 4513,
      "scious": 4514,
      "icial": 4515,
      "armed": 4516,
      "domestic": 4517,
      "lyn": 4518,
      "fellow": 4519,
      "detect": 4520,
      "Bitcoin": 4521,
      ">>": 4522,
      "Mem": 4523,
      "Mean": 4524,
      "Social": 4525,
      "elements": 4526,
      "adjust": 4527,
      "bles": 4528,
      "starts": 4529,
      "fly": 4530,
      "ifying": 4531,
      "medic": 4532,
      "ios": 4533,
      "eah": 4534,
      "uty": 4535,
      "failure": 4536,
      "Amazon": 4537,
      "Syrian": 4538,
      "beer": 4539,
      "AF": 4540,
      "Ru": 4541,
      "bigger": 4542,
      "award": 4543,
      "Color": 4544,
      "suggests": 4545,
      "finish": 4546,
      "sight": 4547,
      "constitution": 4548,
      "susp": 4549,
      "acting": 4550,
      "ada": 4551,
      "patch": 4552,
      "amazing": 4553,
      "construct": 4554,
      "taxes": 4555,
      "Hall": 4556,
      "votes": 4557,
      "intended": 4558,
      "seconds": 4559,
      "boys": 4560,
      "Chief": 4561,
      "script": 4562,
      "yards": 4563,
      "fired": 4564,
      "luck": 4565,
      "\":": 4566,
      "pil": 4567,
      "iation": 4568,
      "remind": 4569,
      "erous": 4570,
      "noon": 4571,
      "va": 4572,
      "photos": 4573,
      "Far": 4574,
      "switch": 4575,
      "insp": 4576,
      "97": 4577,
      "aks": 4578,
      "Sa": 4579,
      "organizations": 4580,
      "SE": 4581,
      "iders": 4582,
      "CP": 4583,
      "sudden": 4584,
      "conce": 4585,
      "Toronto": 4586,
      "phones": 4587,
      "asks": 4588,
      "turns": 4589,
      "87": 4590,
      "army": 4591,
      "breaking": 4592,
      "Only": 4593,
      "carried": 4594,
      "icide": 4595,
      "absolutely": 4596,
      "athe": 4597,
      "fif": 4598,
      "Men": 4599,
      "environmental": 4600,
      "happening": 4601,
      "rush": 4602,
      "error": 4603,
      "philosop": 4604,
      "glass": 4605,
      "alternative": 4606,
      "broken": 4607,
      "Fig": 4608,
      "Second": 4609,
      "uce": 4610,
      "adium": 4611,
      "helping": 4612,
      "OL": 4613,
      "Central": 4614,
      "talks": 4615,
      "consul": 4616,
      "filled": 4617,
      "Each": 4618,
      "decide": 4619,
      "Steve": 4620,
      "unless": 4621,
      "94": 4622,
      "convict": 4623,
      "connected": 4624,
      "Camp": 4625,
      "Though": 4626,
      "Getty": 4627,
      "uate": 4628,
      "filed": 4629,
      "Bet": 4630,
      "harm": 4631,
      "Bost": 4632,
      "secure": 4633,
      "impossible": 4634,
      "Di": 4635,
      "Journal": 4636,
      "Pac": 4637,
      "Maybe": 4638,
      "pping": 4639,
      "astru": 4640,
      "univers": 4641,
      "conscious": 4642,
      "appearance": 4643,
      "lots": 4644,
      "rat": 4645,
      "tag": 4646,
      "Glo": 4647,
      "Sour": 4648,
      "seeking": 4649,
      "Life": 4650,
      "apply": 4651,
      "academ": 4652,
      "spring": 4653,
      "standards": 4654,
      "agues": 4655,
      "broadcast": 4656,
      "humans": 4657,
      "reets": 4658,
      "aces": 4659,
      "HL": 4660,
      "accounts": 4661,
      "variety": 4662,
      "reser": 4663,
      "Brad": 4664,
      "professor": 4665,
      "dropped": 4666,
      "gypt": 4667,
      "Mass": 4668,
      "religion": 4669,
      "princ": 4670,
      "=\"": 4671,
      "gue": 4672,
      "Federal": 4673,
      "territ": 4674,
      "Lee": 4675,
      "Fur": 4676,
      "graphic": 4677,
      "Rad": 4678,
      "apparently": 4679,
      "owned": 4680,
      "gotten": 4681,
      "lan": 4682,
      "swe": 4683,
      "capacity": 4684,
      "district": 4685,
      "positions": 4686,
      "uters": 4687,
      "possibility": 4688,
      "vast": 4689,
      "neighborhood": 4690,
      "Sing": 4691,
      "schedul": 4692,
      "Foundation": 4693,
      "Ze": 4694,
      "facing": 4695,
      "faced": 4696,
      "string": 4697,
      "symp": 4698,
      "Force": 4699,
      "py": 4700,
      "fundament": 4701,
      "IG": 4702,
      "83": 4703,
      "creation": 4704,
      "Boston": 4705,
      "NAS": 4706,
      "Mel": 4707,
      "carbon": 4708,
      "regarding": 4709,
      "clim": 4710,
      "worry": 4711,
      "helps": 4712,
      "twice": 4713,
      "tight": 4714,
      "93": 4715,
      "awa": 4716,
      "shots": 4717,
      "increasingly": 4718,
      "1990": 4719,
      "voc": 4720,
      "currency": 4721,
      "units": 4722,
      "Sign": 4723,
      "prospect": 4724,
      "Still": 4725,
      "ibility": 4726,
      "prime": 4727,
      "Hor": 4728,
      "ki": 4729,
      "developers": 4730,
      "kin": 4731,
      "Space": 4732,
      "valu": 4733,
      "apping": 4734,
      "Egypt": 4735,
      "tel": 4736,
      "Hist": 4737,
      "elected": 4738,
      "warning": 4739,
      "experts": 4740,
      "surprising": 4741,
      "comed": 4742,
      "ares": 4743,
      "Matt": 4744,
      "animal": 4745,
      "internal": 4746,
      "comfortable": 4747,
      "apers": 4748,
      "rom": 4749,
      "soldiers": 4750,
      "deploy": 4751,
      "imagine": 4752,
      "Cru": 4753,
      "multi": 4754,
      "sector": 4755,
      "ultimately": 4756,
      "sounds": 4757,
      "sport": 4758,
      "!\"": 4759,
      "CNN": 4760,
      "itz": 4761,
      "prepared": 4762,
      "ko": 4763,
      "mov": 4764,
      "Guard": 4765,
      "developing": 4766,
      "Carolina": 4767,
      "kins": 4768,
      "closer": 4769,
      "ception": 4770,
      "solar": 4771,
      "Right": 4772,
      "stars": 4773,
      "astructure": 4774,
      "agencies": 4775,
      "Rock": 4776,
      "Middle": 4777,
      "txt0000644000000000000000000001": 4778,
      "honest": 4779,
      "evil": 4780,
      "jail": 4781,
      "phy": 4782,
      "Cy": 4783,
      "cycle": 4784,
      "pieces": 4785,
      "Mich": 4786,
      "capable": 4787,
      "authority": 4788,
      "gment": 4789,
      "seat": 4790,
      "sitting": 4791,
      "shar": 4792,
      "bringing": 4793,
      "alle": 4794,
      "District": 4795,
      "ups": 4796,
      "ansion": 4797,
      "Williams": 4798,
      "pes": 4799,
      "cred": 4800,
      "tch": 4801,
      "Cath": 4802,
      "hase": 4803,
      "poses": 4804,
      "Ev": 4805,
      "plate": 4806,
      "cultural": 4807,
      "icks": 4808,
      "Ron": 4809,
      "satis": 4810,
      "responsibility": 4811,
      "affected": 4812,
      "About": 4813,
      "penal": 4814,
      "passing": 4815,
      "maxim": 4816,
      "abs": 4817,
      "mouth": 4818,
      "olic": 4819,
      "applications": 4820,
      "elections": 4821,
      "random": 4822,
      "Mont": 4823,
      "FA": 4824,
      "Note": 4825,
      "bridge": 4826,
      "00000000000000A": 4827,
      "jour": 4828,
      "aters": 4829,
      "Francisco": 4830,
      "</": 4831,
      "Dou": 4832,
      "keting": 4833,
      "2003": 4834,
      "evin": 4835,
      "university": 4836,
      "estimated": 4837,
      "pled": 4838,
      "Conserv": 4839,
      "EM": 4840,
      "cold": 4841,
      "abort": 4842,
      "Ref": 4843,
      "icul": 4844,
      "Paris": 4845,
      "dress": 4846,
      "determined": 4847,
      "cohol": 4848,
      "Hu": 4849,
      "umn": 4850,
      "82": 4851,
      "weather": 4852,
      "chemical": 4853,
      "illa": 4854,
      "equal": 4855,
      "proto": 4856,
      "presented": 4857,
      "surprise": 4858,
      "ray": 4859,
      "Medic": 4860,
      "zy": 4861,
      "attend": 4862,
      "Sum": 4863,
      "Kel": 4864,
      "txt00006440000000000000000000010": 4865,
      "Virginia": 4866,
      "termine": 4867,
      "crack": 4868,
      "Australian": 4869,
      "eval": 4870,
      "dram": 4871,
      "rail": 4872,
      "Lat": 4873,
      "batt": 4874,
      "Hy": 4875,
      "Andrew": 4876,
      "perspect": 4877,
      "Project": 4878,
      "conclus": 4879,
      "inn": 4880,
      "boost": 4881,
      "auth": 4882,
      "ENT": 4883,
      "agent": 4884,
      "specifically": 4885,
      "asp": 4886,
      "stances": 4887,
      "2001": 4888,
      "],": 4889,
      "baby": 4890,
      "anda": 4891,
      "avy": 4892,
      "pursu": 4893,
      "ador": 4894,
      "gry": 4895,
      "anche": 4896,
      "moral": 4897,
      "guaran": 4898,
      "complic": 4899,
      "attorney": 4900,
      "ION": 4901,
      "DO": 4902,
      "voting": 4903,
      "pression": 4904,
      "plants": 4905,
      "opportun": 4906,
      "Bud": 4907,
      "NE": 4908,
      "pull": 4909,
      "render": 4910,
      "ero": 4911,
      "potentially": 4912,
      "rible": 4913,
      "DS": 4914,
      "streets": 4915,
      "Sports": 4916,
      "determine": 4917,
      "River": 4918,
      "urban": 4919,
      "vehicles": 4920,
      "rapid": 4921,
      "remove": 4922,
      "Ten": 4923,
      "1c": 4924,
      "modif": 4925,
      "Haw": 4926,
      "pointed": 4927,
      "1b": 4928,
      "listed": 4929,
      "occurred": 4930,
      "Cam": 4931,
      "Thank": 4932,
      "Human": 4933,
      "vulner": 4934,
      "icient": 4935,
      "ologies": 4936,
      "seasons": 4937,
      "sts": 4938,
      "advert": 4939,
      "violent": 4940,
      "assum": 4941,
      "92": 4942,
      "sale": 4943,
      "Jackson": 4944,
      "experienced": 4945,
      "cou": 4946,
      "Die": 4947,
      "plenty": 4948,
      "actor": 4949,
      "gor": 4950,
      "antly": 4951,
      "troops": 4952,
      "useum": 4953,
      "apart": 4954,
      "symbol": 4955,
      "CC": 4956,
      "faster": 4957,
      "weapon": 4958,
      "shape": 4959,
      "recru": 4960,
      "----------------": 4961,
      "expert": 4962,
      "thr": 4963,
      "DP": 4964,
      "liberal": 4965,
      "NY": 4966,
      "council": 4967,
      "Thanks": 4968,
      "approved": 4969,
      "resol": 4970,
      "System": 4971,
      "GO": 4972,
      "esterday": 4973,
      "Daily": 4974,
      "sphere": 4975,
      "Blo": 4976,
      "Vol": 4977,
      "governments": 4978,
      "ruling": 4979,
      "combat": 4980,
      "Four": 4981,
      "stance": 4982,
      "expressed": 4983,
      "bby": 4984,
      "cles": 4985,
      "proposal": 4986,
      "->": 4987,
      "factors": 4988,
      "factor": 4989,
      "retail": 4990,
      "ride": 4991,
      "monitor": 4992,
      "infrastructure": 4993,
      "originally": 4994,
      "BBC": 4995,
      "handle": 4996,
      "tested": 4997,
      "equipment": 4998,
      "truck": 4999,
      "serving": 5000,
      "Meanwhile": 5001,
      "bought": 5002,
      "Kar": 5003,
      "uster": 5004,
      "Spr": 5005,
      "relevant": 5006,
      "Island": 5007,
      "transl": 5008,
      "twitter": 5009,
      "refused": 5010,
      "ani": 5011,
      "eper": 5012,
      "wearing": 5013,
      "William": 5014,
      "shift": 5015,
      "methods": 5016,
      "uration": 5017,
      "offering": 5018,
      "challenges": 5019,
      "conducted": 5020,
      "Bus": 5021,
      "greatest": 5022,
      "los": 5023,
      "wis": 5024,
      "endment": 5025,
      "legit": 5026,
      "sam": 5027,
      "tradition": 5028,
      "defined": 5029,
      "nd": 5030,
      "regime": 5031,
      "leads": 5032,
      "consistent": 5033,
      "pa": 5034,
      "temporary": 5035,
      "obviously": 5036,
      "signs": 5037,
      "pal": 5038,
      "significantly": 5039,
      "Best": 5040,
      "ours": 5041,
      "250": 5042,
      "metal": 5043,
      "Dar": 5044,
      "Reuters": 5045,
      "ini": 5046,
      "Director": 5047,
      "percentage": 5048,
      "hall": 5049,
      "recorded": 5050,
      "treated": 5051,
      "letters": 5052,
      "cean": 5053,
      "Inde": 5054,
      "lymp": 5055,
      "indeed": 5056,
      "crew": 5057,
      "Py": 5058,
      "minimum": 5059,
      "distance": 5060,
      "Ohio": 5061,
      "decre": 5062,
      "insist": 5063,
      "motiv": 5064,
      "pages": 5065,
      "isher": 5066,
      "backs": 5067,
      "appreci": 5068,
      "tree": 5069,
      "guns": 5070,
      "wid": 5071,
      "Turkey": 5072,
      ",'": 5073,
      "supporting": 5074,
      "ureau": 5075,
      "DE": 5076,
      "remained": 5077,
      "saving": 5078,
      "parent": 5079,
      "Kim": 5080,
      "quie": 5081,
      "broke": 5082,
      "Labour": 5083,
      "youth": 5084,
      "apps": 5085,
      "Hou": 5086,
      "reduced": 5087,
      "Kur": 5088,
      "pin": 5089,
      "Arch": 5090,
      "Bas": 5091,
      "tally": 5092,
      "tournam": 5093,
      "weren": 5094,
      "visual": 5095,
      "rising": 5096,
      "Rod": 5097,
      "ashion": 5098,
      "Science": 5099,
      "View": 5100,
      "purchase": 5101,
      "Hen": 5102,
      "hurt": 5103,
      "oral": 5104,
      "ller": 5105,
      "Develo": 5106,
      "sac": 5107,
      "OF": 5108,
      "grew": 5109,
      "herself": 5110,
      "involve": 5111,
      "Rus": 5112,
      "basically": 5113,
      "controlled": 5114,
      "package": 5115,
      "powers": 5116,
      "contrast": 5117,
      "ti": 5118,
      "puts": 5119,
      "Loc": 5120,
      "considering": 5121,
      "calcul": 5122,
      "seriously": 5123,
      "bodies": 5124,
      "lit": 5125,
      "clin": 5126,
      "videos": 5127,
      "Conne": 5128,
      "GM": 5129,
      "aircraft": 5130,
      "Sea": 5131,
      "1a": 5132,
      "gri": 5133,
      "3c": 5134,
      "lists": 5135,
      "amin": 5136,
      "600": 5137,
      "identify": 5138,
      "revenue": 5139,
      "rick": 5140,
      "eds": 5141,
      "profile": 5142,
      "Wood": 5143,
      "cluded": 5144,
      "AND": 5145,
      "listen": 5146,
      "explos": 5147,
      "remaining": 5148,
      "films": 5149,
      "2c": 5150,
      "politicians": 5151,
      "discrim": 5152,
      "emergency": 5153,
      "ji": 5154,
      "Grand": 5155,
      "excited": 5156,
      "Sher": 5157,
      "TA": 5158,
      "ordered": 5159,
      "collap": 5160,
      "iger": 5161,
      "Again": 5162,
      "emphas": 5163,
      "1980": 5164,
      "Penn": 5165,
      "ita": 5166,
      "married": 5167,
      "2b": 5168,
      "proced": 5169,
      "narr": 5170,
      "shel": 5171,
      "txt00006440000000000000000000004": 5172,
      "txt00006440000000000000000000005": 5173,
      "ached": 5174,
      "enemy": 5175,
      "afternoon": 5176,
      "argued": 5177,
      "confidence": 5178,
      "Olymp": 5179,
      "root": 5180,
      "Squ": 5181,
      "mi": 5182,
      "advance": 5183,
      "shad": 5184,
      "raising": 5185,
      "enh": 5186,
      "Week": 5187,
      "completed": 5188,
      "ayed": 5189,
      "warm": 5190,
      "mates": 5191,
      "Its": 5192,
      "Ill": 5193,
      "reference": 5194,
      "reaction": 5195,
      "pulled": 5196,
      "moves": 5197,
      "concent": 5198,
      "proof": 5199,
      "typically": 5200,
      "square": 5201,
      "Fre": 5202,
      "OK": 5203,
      "panel": 5204,
      "ques": 5205,
      "fold": 5206,
      "differences": 5207,
      "Hal": 5208,
      "belong": 5209,
      "combined": 5210,
      "craz": 5211,
      "scor": 5212,
      "excell": 5213,
      "opportunities": 5214,
      "txt00006440000000000000000000003": 5215,
      "dream": 5216,
      "ache": 5217,
      "SP": 5218,
      "privacy": 5219,
      "RA": 5220,
      "struggle": 5221,
      "opposed": 5222,
      "entry": 5223,
      "blow": 5224,
      "consumers": 5225,
      "fest": 5226,
      "evening": 5227,
      "relations": 5228,
      "BO": 5229,
      "Du": 5230,
      "coast": 5231,
      "heads": 5232,
      "intent": 5233,
      "quant": 5234,
      "stal": 5235,
      "Fil": 5236,
      "writes": 5237,
      "Cre": 5238,
      "dish": 5239,
      "ensions": 5240,
      "ruption": 5241,
      "alcohol": 5242,
      "acted": 5243,
      "split": 5244,
      "2002": 5245,
      "Long": 5246,
      "stands": 5247,
      "Road": 5248,
      "founder": 5249,
      "fre": 5250,
      "Sar": 5251,
      "talked": 5252,
      "rier": 5253,
      "severe": 5254,
      "confident": 5255,
      "burg": 5256,
      "picked": 5257,
      "entertain": 5258,
      "appointed": 5259,
      "Whe": 5260,
      "gon": 5261,
      "patient": 5262,
      "3b": 5263,
      "franch": 5264,
      "responded": 5265,
      "frust": 5266,
      "writ": 5267,
      "stim": 5268,
      "linked": 5269,
      "Scot": 5270,
      "proceed": 5271,
      "hopes": 5272,
      "technical": 5273,
      "plom": 5274,
      "declared": 5275,
      "instruct": 5276,
      "widely": 5277,
      "Dec": 5278,
      "Muslims": 5279,
      "preced": 5280,
      "attempts": 5281,
      "cab": 5282,
      "dynam": 5283,
      "trouble": 5284,
      "element": 5285,
      "collabor": 5286,
      "default": 5287,
      "Braz": 5288,
      "dial": 5289,
      "promised": 5290,
      "PN": 5291,
      "ju": 5292,
      "Polit": 5293,
      "hat": 5294,
      "yard": 5295,
      "Tal": 5296,
      "client": 5297,
      "Clar": 5298,
      "Elect": 5299,
      "diag": 5300,
      "=>": 5301,
      "terrorist": 5302,
      "ulate": 5303,
      "renew": 5304,
      "kno": 5305,
      "ordinary": 5306,
      "rang": 5307,
      "CA": 5308,
      "driven": 5309,
      "Ire": 5310,
      "grown": 5311,
      "Saudi": 5312,
      "aine": 5313,
      "perman": 5314,
      "Ram": 5315,
      "giant": 5316,
      "appeal": 5317,
      "reporters": 5318,
      "Sovie": 5319,
      "ius": 5320,
      "transition": 5321,
      "ulty": 5322,
      "Afghanistan": 5323,
      "attr": 5324,
      "NBC": 5325,
      "utter": 5326,
      "caption": 5327,
      "assem": 5328,
      "elimin": 5329,
      "reporting": 5330,
      "denied": 5331,
      "route": 5332,
      "sharing": 5333,
      "intend": 5334,
      "Ul": 5335,
      "7c": 5336,
      "ski": 5337,
      "Next": 5338,
      "gam": 5339,
      "Class": 5340,
      "walking": 5341,
      "Seattle": 5342,
      "fairly": 5343,
      "Sky": 5344,
      "gate": 5345,
      "invent": 5346,
      "Ha": 5347,
      "ulated": 5348,
      "Call": 5349,
      "embr": 5350,
      "ISIS": 5351,
      "Stan": 5352,
      "Set": 5353,
      "Christmas": 5354,
      "Max": 5355,
      "matters": 5356,
      "crimes": 5357,
      "igation": 5358,
      "Youn": 5359,
      "bug": 5360,
      "prompt": 5361,
      "Three": 5362,
      "copyright": 5363,
      "numerous": 5364,
      "offee": 5365,
      "unable": 5366,
      "western": 5367,
      "terrorism": 5368,
      "resolution": 5369,
      "Work": 5370,
      "fd": 5371,
      "ipal": 5372,
      "Moun": 5373,
      "ogue": 5374,
      "necessarily": 5375,
      "prepar": 5376,
      "Michigan": 5377,
      "wire": 5378,
      "perspective": 5379,
      "Edit": 5380,
      "messages": 5381,
      "Ukraine": 5382,
      "injured": 5383,
      "Tube": 5384,
      "vey": 5385,
      "venture": 5386,
      "facts": 5387,
      "editor": 5388,
      "unte": 5389,
      "Take": 5390,
      ",[": 5391,
      "kn": 5392,
      "institutions": 5393,
      "depth": 5394,
      "movies": 5395,
      "yell": 5396,
      "artist": 5397,
      "sees": 5398,
      "til": 5399,
      "shouldn": 5400,
      "gia": 5401,
      "Inc": 5402,
      "UC": 5403,
      "Philip": 5404,
      "doctor": 5405,
      "Real": 5406,
      "advice": 5407,
      "delivered": 5408,
      "cher": 5409,
      "ongoing": 5410,
      "Card": 5411,
      "NBA": 5412,
      "6c": 5413,
      "pictures": 5414,
      "2a": 5415,
      "Enter": 5416,
      "archite": 5417,
      "debut": 5418,
      "wins": 5419,
      "NO": 5420,
      "reportedly": 5421,
      "zero": 5422,
      "radical": 5423,
      "7b": 5424,
      "friendly": 5425,
      "TS": 5426,
      "rooms": 5427,
      "admitted": 5428,
      "proud": 5429,
      "Vide": 5430,
      "suffered": 5431,
      "thoughts": 5432,
      "abled": 5433,
      "readers": 5434,
      "grab": 5435,
      "fashion": 5436,
      "icing": 5437,
      "experiences": 5438,
      "nav": 5439,
      "guest": 5440,
      "centre": 5441,
      "explains": 5442,
      "ader": 5443,
      "creative": 5444,
      "Commun": 5445,
      "earn": 5446,
      "Contin": 5447,
      "wed": 5448,
      "Romney": 5449,
      "pleas": 5450,
      "gro": 5451,
      "thro": 5452,
      "newspaper": 5453,
      "pra": 5454,
      "3a": 5455,
      "drivers": 5456,
      "contains": 5457,
      "Did": 5458,
      "agents": 5459,
      "wage": 5460,
      "Perhaps": 5461,
      "4c": 5462,
      "leaves": 5463,
      "pure": 5464,
      "updates": 5465,
      "Wik": 5466,
      "confirm": 5467,
      "evol": 5468,
      "articles": 5469,
      "emails": 5470,
      "habit": 5471,
      "FO": 5472,
      "nations": 5473,
      "Techn": 5474,
      "performed": 5475,
      "declined": 5476,
      "campus": 5477,
      "Greg": 5478,
      "democracy": 5479,
      "findings": 5480,
      "statements": 5481,
      "essentially": 5482,
      "Lake": 5483,
      "attribut": 5484,
      "publicly": 5485,
      "Lar": 5486,
      "forget": 5487,
      "exercise": 5488,
      "athlet": 5489,
      "substant": 5490,
      "config": 5491,
      "Div": 5492,
      "Test": 5493,
      "secretary": 5494,
      "Women": 5495,
      "plot": 5496,
      "enda": 5497,
      "lawyer": 5498,
      "oles": 5499,
      "cha": 5500,
      "Author": 5501,
      "industrial": 5502,
      "6b": 5503,
      "tle": 5504,
      "Swed": 5505,
      "motor": 5506,
      "Brazil": 5507,
      "accompl": 5508,
      "bike": 5509,
      "nergy": 5510,
      "effectively": 5511,
      "3D": 5512,
      "bare": 5513,
      "ternal": 5514,
      "000000000000152": 5515,
      "objects": 5516,
      "ilty": 5517,
      "activists": 5518,
      "Ireland": 5519,
      "realize": 5520,
      "examples": 5521,
      "iest": 5522,
      "inspired": 5523,
      "essential": 5524,
      "iPhone": 5525,
      "efficient": 5526,
      "encing": 5527,
      "buildings": 5528,
      "bear": 5529,
      "argue": 5530,
      "visible": 5531,
      "motion": 5532,
      "4b": 5533,
      "Fam": 5534,
      "covering": 5535,
      "thank": 5536,
      "adop": 5537,
      "Child": 5538,
      "000000000000153": 5539,
      "wave": 5540,
      "Further": 5541,
      "vac": 5542,
      "governor": 5543,
      "explan": 5544,
      "fighters": 5545,
      "Cop": 5546,
      "800": 5547,
      "marked": 5548,
      "Board": 5549,
      "db": 5550,
      "ourselves": 5551,
      "Jews": 5552,
      "Cub": 5553,
      "expansion": 5554,
      "81": 5555,
      "cip": 5556,
      "scheduled": 5557,
      "diplom": 5558,
      "ansas": 5559,
      "boss": 5560,
      "practices": 5561,
      "attract": 5562,
      "List": 5563,
      "Vict": 5564,
      "advanced": 5565,
      "ula": 5566,
      "5e": 5567,
      "cert": 5568,
      "criticism": 5569,
      "Old": 5570,
      "citizen": 5571,
      "trigger": 5572,
      "existence": 5573,
      "myster": 5574,
      "Key": 5575,
      "datab": 5576,
      "Story": 5577,
      "Barack": 5578,
      "Ann": 5579,
      "ancing": 5580,
      "neither": 5581,
      "causes": 5582,
      "Houston": 5583,
      "dependent": 5584,
      "magazine": 5585,
      "thinks": 5586,
      "5f": 5587,
      "initially": 5588,
      "allegations": 5589,
      "ulations": 5590,
      "totally": 5591,
      "illi": 5592,
      "Common": 5593,
      "isol": 5594,
      "7a": 5595,
      "stretch": 5596,
      "implic": 5597,
      "Love": 5598,
      "injuries": 5599,
      "abandon": 5600,
      "ionally": 5601,
      "desire": 5602,
      "subsequ": 5603,
      "Stand": 5604,
      "warned": 5605,
      "Econom": 5606,
      "Palestinian": 5607,
      "accepted": 5608,
      "ml": 5609,
      "situ": 5610,
      "ME": 5611,
      "Brook": 5612,
      "stag": 5613,
      "120": 5614,
      "chip": 5615,
      "bott": 5616,
      "photograph": 5617,
      "ause": 5618,
      "Games": 5619,
      "drawn": 5620,
      "everybody": 5621,
      "agers": 5622,
      "rally": 5623,
      "mountain": 5624,
      "improved": 5625,
      "Mot": 5626,
      "roughly": 5627,
      "playoff": 5628,
      "Share": 5629,
      "materials": 5630,
      "disput": 5631,
      "otic": 5632,
      "Asia": 5633,
      "Bul": 5634,
      "fru": 5635,
      "Care": 5636,
      "cus": 5637,
      "Club": 5638,
      "earned": 5639,
      "Way": 5640,
      "shif": 5641,
      "Korean": 5642,
      "rd": 5643,
      "YouTube": 5644,
      "Colorado": 5645,
      "atmo": 5646,
      "olar": 5647,
      "Ky": 5648,
      "links": 5649,
      "Profess": 5650,
      "Click": 5651,
      "hibit": 5652,
      "historical": 5653,
      "surprised": 5654,
      "offense": 5655,
      "scored": 5656,
      "represents": 5657,
      "announcement": 5658,
      "classes": 5659,
      "earning": 5660,
      "Link": 5661,
      "aught": 5662,
      "stores": 5663,
      "rem": 5664,
      "discussed": 5665,
      "passeng": 5666,
      "000000000000146": 5667,
      "Kevin": 5668,
      "Van": 5669,
      "consumer": 5670,
      "Jesus": 5671,
      "prin": 5672,
      "increases": 5673,
      "yesterday": 5674,
      "gap": 5675,
      "pover": 5676,
      "library": 5677,
      "pattern": 5678,
      "ola": 5679,
      "Champion": 5680,
      "Por": 5681,
      "applied": 5682,
      "Charles": 5683,
      "Source": 5684,
      "Nov": 5685,
      "Cast": 5686,
      "hypo": 5687,
      "Prem": 5688,
      "posts": 5689,
      "Soviet": 5690,
      "expression": 5691,
      "Holly": 5692,
      "ets": 5693,
      "guilty": 5694,
      "backed": 5695,
      "storage": 5696,
      "Daniel": 5697,
      "entered": 5698,
      "flood": 5699,
      "communications": 5700,
      "Naz": 5701,
      "ERS": 5702,
      "consequences": 5703,
      "begins": 5704,
      "island": 5705,
      "hell": 5706,
      "illance": 5707,
      "Davis": 5708,
      "4a": 5709,
      "follows": 5710,
      "pray": 5711,
      "classic": 5712,
      "irty": 5713,
      "Wr": 5714,
      "utch": 5715,
      "6a": 5716,
      "ena": 5717,
      "CS": 5718,
      "Come": 5719,
      "combination": 5720,
      "distribution": 5721,
      "nearby": 5722,
      "Roman": 5723,
      "threats": 5724,
      "sought": 5725,
      "Data": 5726,
      "storm": 5727,
      "trick": 5728,
      "adds": 5729,
      "cere": 5730,
      "approxim": 5731,
      "Bat": 5732,
      "pipe": 5733,
      "Bi": 5734,
      "pushed": 5735,
      "Eli": 5736,
      "functions": 5737,
      "protected": 5738,
      "defe": 5739,
      "mond": 5740,
      "genet": 5741,
      "versions": 5742,
      "rage": 5743,
      "Check": 5744,
      "91": 5745,
      "forth": 5746,
      "brings": 5747,
      "highlight": 5748,
      "rev": 5749,
      "temperature": 5750,
      "Putin": 5751,
      "rape": 5752,
      "clar": 5753,
      "songs": 5754,
      "locked": 5755,
      "snow": 5756,
      "Wis": 5757,
      "Ital": 5758,
      "Tay": 5759,
      "fuck": 5760,
      "receiving": 5761,
      "sters": 5762,
      "norm": 5763,
      "athan": 5764,
      "Young": 5765,
      "branch": 5766,
      "winter": 5767,
      "missions": 5768,
      "evolution": 5769,
      "whel": 5770,
      "unlikely": 5771,
      "quir": 5772,
      "gal": 5773,
      "manage": 5774,
      "lean": 5775,
      "::": 5776,
      "hole": 5777,
      "conven": 5778,
      "investors": 5779,
      "bench": 5780,
      "restaurant": 5781,
      "parliament": 5782,
      "buying": 5783,
      "Defense": 5784,
      "fraud": 5785,
      "dad": 5786,
      "Arizon": 5787,
      "reasonable": 5788,
      "Ah": 5789,
      "obl": 5790,
      "angers": 5791,
      "stable": 5792,
      "iously": 5793,
      "sufficient": 5794,
      "quarters": 5795,
      "lawsuit": 5796,
      "marketing": 5797,
      "CIA": 5798,
      "waste": 5799,
      "networks": 5800,
      "duc": 5801,
      "Energy": 5802,
      "neut": 5803,
      "Rights": 5804,
      "cape": 5805,
      "Tit": 5806,
      "inary": 5807,
      "guid": 5808,
      "wers": 5809,
      "heavily": 5810,
      "competitive": 5811,
      "somewhat": 5812,
      "pace": 5813,
      "scar": 5814,
      "Mu": 5815,
      "Eric": 5816,
      "noticed": 5817,
      "icts": 5818,
      "knock": 5819,
      "fasc": 5820,
      "math": 5821,
      "anywhere": 5822,
      "index": 5823,
      "nab": 5824,
      "Gor": 5825,
      "favour": 5826,
      "houses": 5827,
      "bright": 5828,
      "flash": 5829,
      "gang": 5830,
      "operate": 5831,
      "liqu": 5832,
      "division": 5833,
      "targets": 5834,
      "Dam": 5835,
      "younger": 5836,
      "8f": 5837,
      "succeed": 5838,
      "flat": 5839,
      "Lord": 5840,
      "protests": 5841,
      "9f": 5842,
      "Vis": 5843,
      "Arizona": 5844,
      "andal": 5845,
      "emotional": 5846,
      "ails": 5847,
      "CD": 5848,
      "colleagues": 5849,
      "approval": 5850,
      "resent": 5851,
      "Cruz": 5852,
      "1970": 5853,
      "SH": 5854,
      "shit": 5855,
      "crazy": 5856,
      "deaths": 5857,
      "importance": 5858,
      "acle": 5859,
      "9e": 5860,
      "sick": 5861,
      "theless": 5862,
      "plug": 5863,
      "lift": 5864,
      "8e": 5865,
      "Dun": 5866,
      "accurate": 5867,
      "height": 5868,
      "replaced": 5869,
      "Land": 5870,
      "trave": 5871,
      "usal": 5872,
      "hid": 5873,
      "mate": 5874,
      "Never": 5875,
      "promin": 5876,
      "carrying": 5877,
      "illust": 5878,
      "doctors": 5879,
      "regulations": 5880,
      "TR": 5881,
      "allegedly": 5882,
      "Catholic": 5883,
      "Constitution": 5884,
      "customer": 5885,
      "demo": 5886,
      "Camer": 5887,
      "opposite": 5888,
      "lobby": 5889,
      "bels": 5890,
      "NASA": 5891,
      "Java": 5892,
      "Bor": 5893,
      "volunte": 5894,
      "Invest": 5895,
      "BM": 5896,
      "volume": 5897,
      "Unfortunately": 5898,
      "Ali": 5899,
      "adults": 5900,
      "GP": 5901,
      "facility": 5902,
      "signing": 5903,
      "abortion": 5904,
      "issions": 5905,
      "hardware": 5906,
      "communication": 5907,
      "authors": 5908,
      "HS": 5909,
      "doors": 5910,
      "output": 5911,
      "wound": 5912,
      "meat": 5913,
      "column": 5914,
      "tiny": 5915,
      "acknowled": 5916,
      "dim": 5917,
      "fli": 5918,
      "moments": 5919,
      "Valley": 5920,
      "Finally": 5921,
      "aside": 5922,
      "Run": 5923,
      "covery": 5924,
      "Shar": 5925,
      "Oct": 5926,
      "guide": 5927,
      "agan": 5928,
      "handed": 5929,
      "iency": 5930,
      "km": 5931,
      "chairman": 5932,
      "joint": 5933,
      "Span": 5934,
      "excellent": 5935,
      "opponent": 5936,
      "hoping": 5937,
      "Miller": 5938,
      "Harris": 5939,
      "frequently": 5940,
      "700": 5941,
      "expl": 5942,
      "pregn": 5943,
      "Light": 5944,
      "immediate": 5945,
      "returns": 5946,
      "headed": 5947,
      "oul": 5948,
      "coordin": 5949,
      "properly": 5950,
      "featured": 5951,
      "Adam": 5952,
      "understood": 5953,
      "suffering": 5954,
      "fewer": 5955,
      "passion": 5956,
      "fixed": 5957,
      "eating": 5958,
      "closely": 5959,
      "pred": 5960,
      "Ret": 5961,
      "harder": 5962,
      "oked": 5963,
      "incent": 5964,
      "',": 5965,
      "ancient": 5966,
      "referred": 5967,
      "Hot": 5968,
      "Dig": 5969,
      "controversial": 5970,
      "Ass": 5971,
      "desk": 5972,
      "struck": 5973,
      "HD": 5974,
      "literally": 5975,
      "Water": 5976,
      "fundamental": 5977,
      "VR": 5978,
      "manner": 5979,
      "trend": 5980,
      "ulture": 5981,
      "aint": 5982,
      "instru": 5983,
      "esome": 5984,
      "Special": 5985,
      "deeply": 5986,
      "sand": 5987,
      "ati": 5988,
      "detailed": 5989,
      "welcome": 5990,
      "strange": 5991,
      "assets": 5992,
      "Jord": 5993,
      "watched": 5994,
      "remot": 5995,
      "jection": 5996,
      "cutting": 5997,
      "Tot": 5998,
      "burn": 5999,
      "updated": 6000,
      "VER": 6001,
      "tournament": 6002,
      "Wilson": 6003,
      "pit": 6004,
      "regional": 6005,
      "ros": 6006,
      "reads": 6007,
      "immigrants": 6008,
      "participants": 6009,
      "kne": 6010,
      "circumstances": 6011,
      "osen": 6012,
      "0x": 6013,
      "mile": 6014,
      "suicide": 6015,
      "locations": 6016,
      "Fer": 6017,
      "extent": 6018,
      "inet": 6019,
      "Brian": 6020,
      "observ": 6021,
      "LO": 6022,
      "fields": 6023,
      "(\"": 6024,
      "relationships": 6025,
      "Detro": 6026,
      "preh": 6027,
      "Station": 6028,
      "pushing": 6029,
      "describe": 6030,
      "intel": 6031,
      "virtual": 6032,
      "fron": 6033,
      "inning": 6034,
      "Stephen": 6035,
      "Detroit": 6036,
      "yl": 6037,
      "izon": 6038,
      "Ra": 6039,
      "reput": 6040,
      "indu": 6041,
      "causing": 6042,
      "artists": 6043,
      "pto": 6044,
      "proved": 6045,
      "defic": 6046,
      "ctic": 6047,
      "acce": 6048,
      "cue": 6049,
      "claiming": 6050,
      "decline": 6051,
      "Make": 6052,
      "Hun": 6053,
      "subsid": 6054,
      "Oper": 6055,
      "kinds": 6056,
      "shr": 6057,
      "targeted": 6058,
      "txt00006440000000000000000000012": 6059,
      "commitment": 6060,
      "sentence": 6061,
      "onom": 6062,
      "stab": 6063,
      "Among": 6064,
      "Has": 6065,
      "Dark": 6066,
      "Attor": 6067,
      "repeatedly": 6068,
      "gg": 6069,
      "dry": 6070,
      "SU": 6071,
      "eline": 6072,
      "mainstream": 6073,
      "knowing": 6074,
      "wash": 6075,
      "precise": 6076,
      "hotel": 6077,
      "topic": 6078,
      "ii": 6079,
      "alongside": 6080,
      "sister": 6081,
      "dedicated": 6082,
      "maker": 6083,
      "attempted": 6084,
      "arden": 6085,
      "founded": 6086,
      "Which": 6087,
      "Pacific": 6088,
      "administr": 6089,
      "ading": 6090,
      "overwhel": 6091,
      "aced": 6092,
      "wan": 6093,
      "studio": 6094,
      "iron": 6095,
      "realized": 6096,
      "schedule": 6097,
      "diagno": 6098,
      "cloud": 6099,
      "basket": 6100,
      "universe": 6101,
      "drag": 6102,
      "kil": 6103,
      "upcoming": 6104,
      "typical": 6105,
      "franchise": 6106,
      "dc": 6107,
      "Night": 6108,
      "wake": 6109,
      "coffee": 6110,
      "approximately": 6111,
      "likes": 6112,
      "walked": 6113,
      "empty": 6114,
      "Report": 6115,
      "LL": 6116,
      "unknown": 6117,
      "%)": 6118,
      "($": 6119,
      "tent": 6120,
      "magic": 6121,
      "agenda": 6122,
      "remote": 6123,
      "observed": 6124,
      "isms": 6125,
      "funded": 6126,
      "directed": 6127,
      "Dri": 6128,
      "dealing": 6129,
      "surveillance": 6130,
      "tex": 6131,
      "journey": 6132,
      "ario": 6133,
      "odd": 6134,
      "sample": 6135,
      "Pen": 6136,
      "bat": 6137,
      "teachers": 6138,
      "ensus": 6139,
      "wart": 6140,
      "ias": 6141,
      "Live": 6142,
      "Nick": 6143,
      "latter": 6144,
      "Met": 6145,
      "reward": 6146,
      "Jr": 6147,
      "selection": 6148,
      "Hollywood": 6149,
      "flex": 6150,
      "Organ": 6151,
      "channel": 6152,
      "Yeah": 6153,
      "boot": 6154,
      "ears": 6155,
      "haw": 6156,
      "payment": 6157,
      "teacher": 6158,
      "opponents": 6159,
      "selected": 6160,
      "exciting": 6161,
      "constitutional": 6162,
      "battery": 6163,
      "informed": 6164,
      "inated": 6165,
      "conver": 6166,
      "adel": 6167,
      "d0": 6168,
      "vices": 6169,
      "atell": 6170,
      "Jordan": 6171,
      "input": 6172,
      "rog": 6173,
      "Such": 6174,
      "itarian": 6175,
      "winner": 6176,
      "dogs": 6177,
      "deck": 6178,
      "represented": 6179,
      "ciples": 6180,
      "sending": 6181,
      "gery": 6182,
      "Os": 6183,
      "extended": 6184,
      "Miami": 6185,
      "Gaz": 6186,
      "congress": 6187,
      "vacc": 6188,
      "alive": 6189,
      "txt00006440000000000000000000013": 6190,
      "properties": 6191,
      "encounter": 6192,
      "fifth": 6193,
      "1999": 6194,
      "impressive": 6195,
      "edition": 6196,
      "Vi": 6197,
      "surrounding": 6198,
      "pu": 6199,
      "cipl": 6200,
      "Ray": 6201,
      "inher": 6202,
      "protesters": 6203,
      "inations": 6204,
      "anx": 6205,
      "tank": 6206,
      "zo": 6207,
      "Av": 6208,
      "Georgia": 6209,
      "ums": 6210,
      "NS": 6211,
      "Irish": 6212,
      "audio": 6213,
      "refugees": 6214,
      "Pay": 6215,
      "orient": 6216,
      "mistake": 6217,
      "Labor": 6218,
      "Kelly": 6219,
      "Italy": 6220,
      "honor": 6221,
      "Have": 6222,
      "Administ": 6223,
      "sweet": 6224,
      "DNA": 6225,
      "Ash": 6226,
      "Revie": 6227,
      "iat": 6228,
      "convent": 6229,
      "tes": 6230,
      "deput": 6231,
      "Spanish": 6232,
      "Ford": 6233,
      "acing": 6234,
      "narrow": 6235,
      "possess": 6236,
      "tox": 6237,
      "flav": 6238,
      "Company": 6239,
      "fees": 6240,
      "aven": 6241,
      "poverty": 6242,
      "upper": 6243,
      "remark": 6244,
      "angle": 6245,
      "Dem": 6246,
      "TC": 6247,
      "northern": 6248,
      "istry": 6249,
      "sharp": 6250,
      "definition": 6251,
      "risks": 6252,
      "deser": 6253,
      "blame": 6254,
      "resistance": 6255,
      "anyway": 6256,
      "defeat": 6257,
      "Asian": 6258,
      "phase": 6259,
      "Senator": 6260,
      "Josh": 6261,
      "lla": 6262,
      "adult": 6263,
      "attacked": 6264,
      "requirements": 6265,
      "limits": 6266,
      "Rog": 6267,
      "destroyed": 6268,
      "txt00006440000000000000000000006": 6269,
      "iments": 6270,
      "theme": 6271,
      "kel": 6272,
      "writers": 6273,
      "punish": 6274,
      "pressed": 6275,
      "matches": 6276,
      "theast": 6277,
      "Thus": 6278,
      "Orig": 6279,
      "equival": 6280,
      "promote": 6281,
      "ills": 6282,
      "maximum": 6283,
      "consult": 6284,
      "tric": 6285,
      "legally": 6286,
      "strikes": 6287,
      "wheel": 6288,
      "ils": 6289,
      "folks": 6290,
      "phenomen": 6291,
      "Victor": 6292,
      "Tele": 6293,
      "organized": 6294,
      "Society": 6295,
      "retire": 6296,
      "Business": 6297,
      "involving": 6298,
      "icken": 6299,
      "mann": 6300,
      "anony": 6301,
      "format": 6302,
      "ensity": 6303,
      "license": 6304,
      "requests": 6305,
      "suddenly": 6306,
      "Attorney": 6307,
      "III": 6308,
      "Turk": 6309,
      "eb": 6310,
      "110": 6311,
      "merely": 6312,
      "++": 6313,
      "Sever": 6314,
      "bunch": 6315,
      "Moore": 6316,
      "territory": 6317,
      "slowly": 6318,
      "phr": 6319,
      "scenes": 6320,
      "exposed": 6321,
      "Joseph": 6322,
      "Disney": 6323,
      "rival": 6324,
      "intention": 6325,
      "loan": 6326,
      "ashed": 6327,
      "weigh": 6328,
      "Dall": 6329,
      "explic": 6330,
      "NHL": 6331,
      "deals": 6332,
      "clock": 6333,
      "ruled": 6334,
      "satisf": 6335,
      "144": 6336,
      "divers": 6337,
      "worried": 6338,
      "chose": 6339,
      "Dead": 6340,
      "strongly": 6341,
      "Network": 6342,
      "Civil": 6343,
      "harass": 6344,
      "holiday": 6345,
      "cheap": 6346,
      "quarterback": 6347,
      "))": 6348,
      "arguments": 6349,
      "intellect": 6350,
      "CL": 6351,
      "Jersey": 6352,
      "colon": 6353,
      "escape": 6354,
      "assume": 6355,
      "Wild": 6356,
      "allies": 6357,
      "chap": 6358,
      "greg": 6359,
      "Foot": 6360,
      "Gir": 6361,
      "Us": 6362,
      "Start": 6363,
      "Cross": 6364,
      "servers": 6365,
      "apol": 6366,
      "worker": 6367,
      "duty": 6368,
      "supports": 6369,
      "shell": 6370,
      "iants": 6371,
      "Indeed": 6372,
      "IF": 6373,
      "inals": 6374,
      "Agency": 6375,
      "correspond": 6376,
      "Educ": 6377,
      "officially": 6378,
      "squad": 6379,
      "itable": 6380,
      "payments": 6381,
      "recognize": 6382,
      "expo": 6383,
      "yo": 6384,
      "blind": 6385,
      "awn": 6386,
      "deleg": 6387,
      "CR": 6388,
      "stein": 6389,
      "facilities": 6390,
      "solve": 6391,
      "Tony": 6392,
      "SO": 6393,
      "regions": 6394,
      "somehow": 6395,
      "mixed": 6396,
      "employee": 6397,
      "Kir": 6398,
      "infect": 6399,
      "engage": 6400,
      "fake": 6401,
      "falling": 6402,
      "valuable": 6403,
      "scheme": 6404,
      "successfully": 6405,
      "stack": 6406,
      "personally": 6407,
      "Does": 6408,
      "nomine": 6409,
      "cling": 6410,
      "somewhere": 6411,
      "flying": 6412,
      "critics": 6413,
      "Global": 6414,
      "axy": 6415,
      "Fall": 6416,
      "LGB": 6417,
      "WE": 6418,
      "Sometimes": 6419,
      "actors": 6420,
      "enable": 6421,
      "lum": 6422,
      "emen": 6423,
      "inson": 6424,
      "village": 6425,
      "journalists": 6426,
      "Program": 6427,
      "Services": 6428,
      "WH": 6429,
      "ideal": 6430,
      "database": 6431,
      "Gra": 6432,
      "pilot": 6433,
      "insul": 6434,
      "GE": 6435,
      "hits": 6436,
      "condem": 6437,
      "cos": 6438,
      "mayor": 6439,
      "captured": 6440,
      "category": 6441,
      "Taylor": 6442,
      "Tem": 6443,
      "trees": 6444,
      "conspir": 6445,
      "Academ": 6446,
      "endor": 6447,
      "comparison": 6448,
      "capture": 6449,
      "conv": 6450,
      "Scotland": 6451,
      "Minnes": 6452,
      "isan": 6453,
      "Lad": 6454,
      "History": 6455,
      "Video": 6456,
      "Foreign": 6457,
      "generated": 6458,
      "dozen": 6459,
      "desper": 6460,
      "emissions": 6461,
      "Mob": 6462,
      "asser": 6463,
      "coll": 6464,
      "goods": 6465,
      "robot": 6466,
      "Linux": 6467,
      "obtained": 6468,
      "mony": 6469,
      "cannab": 6470,
      "dated": 6471,
      "fection": 6472,
      "owed": 6473,
      "Following": 6474,
      "chosen": 6475,
      "polls": 6476,
      "encourage": 6477,
      "southern": 6478,
      "000000000000154": 6479,
      "interpret": 6480,
      "Southern": 6481,
      "illing": 6482,
      "LGBT": 6483,
      "Dallas": 6484,
      "oph": 6485,
      "Spain": 6486,
      "Food": 6487,
      "Pack": 6488,
      "registered": 6489,
      "PG": 6490,
      "owa": 6491,
      "ende": 6492,
      "prise": 6493,
      "shire": 6494,
      "Italian": 6495,
      "generate": 6496,
      "ented": 6497,
      "spoken": 6498,
      "meetings": 6499,
      "diet": 6500,
      "developer": 6501,
      "extensive": 6502,
      "primarily": 6503,
      "estate": 6504,
      "myth": 6505,
      "Nations": 6506,
      "intim": 6507,
      "constit": 6508,
      "stronger": 6509,
      "iti": 6510,
      "roads": 6511,
      "perfectly": 6512,
      "anticip": 6513,
      "None": 6514,
      "Pad": 6515,
      "electricity": 6516,
      "Op": 6517,
      "Wel": 6518,
      "Without": 6519,
      "ye": 6520,
      "grav": 6521,
      "purposes": 6522,
      "racial": 6523,
      "ptions": 6524,
      "awesome": 6525,
      "compreh": 6526,
      "Pop": 6527,
      "gall": 6528,
      "aggressive": 6529,
      "somebody": 6530,
      "petition": 6531,
      "Wars": 6532,
      "scape": 6533,
      "cin": 6534,
      "pha": 6535,
      "trading": 6536,
      "zens": 6537,
      "threatened": 6538,
      "retain": 6539,
      "finds": 6540,
      "Develop": 6541,
      "eda": 6542,
      "closure": 6543,
      "Ba": 6544,
      "publish": 6545,
      "Minnesota": 6546,
      "distinct": 6547,
      "itors": 6548,
      "warming": 6549,
      "discipl": 6550,
      "nels": 6551,
      "components": 6552,
      "Major": 6553,
      "gaming": 6554,
      "ht": 6555,
      "amounts": 6556,
      "Prince": 6557,
      "scan": 6558,
      "nobody": 6559,
      "Season": 6560,
      "Fal": 6561,
      "scow": 6562,
      "reck": 6563,
      "regularly": 6564,
      "tied": 6565,
      "Name": 6566,
      "span": 6567,
      "adapt": 6568,
      "blocks": 6569,
      "Through": 6570,
      "answers": 6571,
      "reveal": 6572,
      "employed": 6573,
      "apy": 6574,
      "Ut": 6575,
      "rolling": 6576,
      "affil": 6577,
      "Music": 6578,
      "esy": 6579,
      "parking": 6580,
      "rejected": 6581,
      "Jason": 6582,
      "Kr": 6583,
      "Series": 6584,
      "narrative": 6585,
      "solutions": 6586,
      "loaded": 6587,
      "estimates": 6588,
      "Win": 6589,
      "Nation": 6590,
      "exists": 6591,
      "Democrat": 6592,
      "keys": 6593,
      "1998": 6594,
      "constantly": 6595,
      "Bron": 6596,
      "seats": 6597,
      "institution": 6598,
      "titles": 6599,
      "manufactur": 6600,
      "stuck": 6601,
      "programming": 6602,
      "WS": 6603,
      "rational": 6604,
      "starter": 6605,
      "province": 6606,
      "ains": 6607,
      "Comm": 6608,
      "technologies": 6609,
      "installed": 6610,
      "cuit": 6611,
      "signal": 6612,
      "aser": 6613,
      "aspects": 6614,
      "Vo": 6615,
      "bath": 6616,
      "Boy": 6617,
      "Ever": 6618,
      "Given": 6619,
      "afr": 6620,
      "Bon": 6621,
      "drawing": 6622,
      "d5": 6623,
      "drinking": 6624,
      "choices": 6625,
      "illy": 6626,
      "enemies": 6627,
      "tort": 6628,
      "Dre": 6629,
      "util": 6630,
      "incredible": 6631,
      "resulting": 6632,
      "bitcoin": 6633,
      "continuing": 6634,
      "Oreg": 6635,
      "embar": 6636,
      "Henry": 6637,
      "compens": 6638,
      "spell": 6639,
      "angry": 6640,
      "asts": 6641,
      "Tour": 6642,
      "Rick": 6643,
      "excess": 6644,
      "anymore": 6645,
      "terrible": 6646,
      "passes": 6647,
      "outcome": 6648,
      "incredibly": 6649,
      "Fran": 6650,
      "plastic": 6651,
      "contributed": 6652,
      "shares": 6653,
      "elsewhere": 6654,
      "controls": 6655,
      "Stat": 6656,
      "Oregon": 6657,
      "info": 6658,
      "enthus": 6659,
      "baseball": 6660,
      "rence": 6661,
      "itar": 6662,
      "cited": 6663,
      "keeps": 6664,
      "bills": 6665,
      "worldwide": 6666,
      "eman": 6667,
      "admit": 6668,
      "hidden": 6669,
      "Use": 6670,
      "coalition": 6671,
      "Metro": 6672,
      "ders": 6673,
      "Hard": 6674,
      "geo": 6675,
      "cers": 6676,
      "Sk": 6677,
      "assistant": 6678,
      "attended": 6679,
      "historic": 6680,
      "privile": 6681,
      "Cat": 6682,
      "Keep": 6683,
      "Cir": 6684,
      "concluded": 6685,
      "TP": 6686,
      "reporter": 6687,
      "engineering": 6688,
      "oration": 6689,
      "atmosphere": 6690,
      "grees": 6691,
      "recovery": 6692,
      "clients": 6693,
      "Chan": 6694,
      "routine": 6695,
      "complicated": 6696,
      "situations": 6697,
      "crucial": 6698,
      "inspir": 6699,
      "county": 6700,
      "ogy": 6701,
      "Snow": 6702,
      "tection": 6703,
      "neur": 6704,
      "Iowa": 6705,
      "apartment": 6706,
      "zing": 6707,
      "ticket": 6708,
      "visited": 6709,
      "Dom": 6710,
      "ABC": 6711,
      "bio": 6712,
      "Lam": 6713,
      "rose": 6714,
      "Rose": 6715,
      "permanent": 6716,
      "Moscow": 6717,
      "Kent": 6718,
      "pel": 6719,
      "machines": 6720,
      "engaged": 6721,
      "powered": 6722,
      "Pi": 6723,
      "rol": 6724,
      "manip": 6725,
      "consumption": 6726,
      "rein": 6727,
      "icted": 6728,
      "corruption": 6729,
      "ua": 6730,
      "elines": 6731,
      "bull": 6732,
      "ilit": 6733,
      "Fort": 6734,
      "courts": 6735,
      "Tar": 6736,
      "explanation": 6737,
      "demands": 6738,
      "lder": 6739,
      "returning": 6740,
      "HP": 6741,
      "contest": 6742,
      "Using": 6743,
      "vard": 6744,
      "Head": 6745,
      "satell": 6746,
      "neutral": 6747,
      "Mir": 6748,
      "depending": 6749,
      "tracks": 6750,
      "DR": 6751,
      "Ur": 6752,
      "prec": 6753,
      "enders": 6754,
      "penalty": 6755,
      "newly": 6756,
      "2019": 6757,
      "productive": 6758,
      "Parliament": 6759,
      "sme": 6760,
      "Judge": 6761,
      "SC": 6762,
      "pse": 6763,
      "taught": 6764,
      "medium": 6765,
      "sider": 6766,
      ".\"[": 6767,
      "aland": 6768,
      "roster": 6769,
      "tap": 6770,
      "spons": 6771,
      "Sir": 6772,
      "Northern": 6773,
      "feedback": 6774,
      "TE": 6775,
      "amber": 6776,
      "define": 6777,
      "granted": 6778,
      "oster": 6779,
      "Cred": 6780,
      "uated": 6781,
      "mining": 6782,
      "explore": 6783,
      "CBS": 6784,
      "finance": 6785,
      "enor": 6786,
      "producing": 6787,
      "conclusion": 6788,
      "Greek": 6789,
      "lined": 6790,
      "complaint": 6791,
      "NAT": 6792,
      "rely": 6793,
      "Rand": 6794,
      "Eastern": 6795,
      "Little": 6796,
      "liked": 6797,
      "equivalent": 6798,
      "firms": 6799,
      "Mah": 6800,
      "Gov": 6801,
      "Core": 6802,
      "afraid": 6803,
      "assistance": 6804,
      "placing": 6805,
      "Field": 6806,
      "academic": 6807,
      "degrees": 6808,
      "reaching": 6809,
      "laid": 6810,
      "chances": 6811,
      "elig": 6812,
      "Wiscons": 6813,
      "punch": 6814,
      "cock": 6815,
      "pson": 6816,
      "elite": 6817,
      "Anth": 6818,
      "comic": 6819,
      "fiction": 6820,
      "defence": 6821,
      "ologist": 6822,
      "veteran": 6823,
      "Alab": 6824,
      "adelph": 6825,
      "%.": 6826,
      "Script": 6827,
      "Harry": 6828,
      "browser": 6829,
      "Fair": 6830,
      "Juli": 6831,
      "techniques": 6832,
      "sures": 6833,
      "hes": 6834,
      "Contro": 6835,
      "Whether": 6836,
      "asted": 6837,
      "Manche": 6838,
      "suspic": 6839,
      "teaching": 6840,
      "det": 6841,
      "ole": 6842,
      "Bell": 6843,
      "mainly": 6844,
      "surgery": 6845,
      "Kat": 6846,
      "Wat": 6847,
      "holders": 6848,
      "Bol": 6849,
      "regardless": 6850,
      "vulnerable": 6851,
      "cogn": 6852,
      "taste": 6853,
      "1960": 6854,
      "Wisconsin": 6855,
      "Manchester": 6856,
      "factory": 6857,
      "cable": 6858,
      "ote": 6859,
      "Philadelph": 6860,
      "Jay": 6861,
      "funny": 6862,
      "automatically": 6863,
      "lawmakers": 6864,
      "rub": 6865,
      "altern": 6866,
      "200000000000015": 6867,
      "Radio": 6868,
      "Dev": 6869,
      "establishment": 6870,
      "........": 6871,
      "iser": 6872,
      "aimed": 6873,
      "sect": 6874,
      "toler": 6875,
      "fought": 6876,
      "fab": 6877,
      "exposure": 6878,
      "Viet": 6879,
      "Professor": 6880,
      "txt00006440000000000000000000002": 6881,
      "Bry": 6882,
      "Battle": 6883,
      "scoring": 6884,
      "atom": 6885,
      "mort": 6886,
      "formal": 6887,
      "000000000000014": 6888,
      "discrimination": 6889,
      "disaster": 6890,
      "collected": 6891,
      "propag": 6892,
      "gorith": 6893,
      "stations": 6894,
      "Fund": 6895,
      "recording": 6896,
      "chart": 6897,
      "rey": 6898,
      "shirt": 6899,
      "Policy": 6900,
      "100000000000015": 6901,
      "Philadelphia": 6902,
      "weird": 6903,
      "forcing": 6904,
      "Plus": 6905,
      "Bowl": 6906,
      "Coast": 6907,
      "ea": 6908,
      "fc": 6909,
      "Hay": 6910,
      "busy": 6911,
      "loop": 6912,
      "Gall": 6913,
      "intense": 6914,
      "possession": 6915,
      "cod": 6916,
      "Build": 6917,
      "foundation": 6918,
      "entit": 6919,
      "layer": 6920,
      "Sn": 6921,
      "Royal": 6922,
      "Lim": 6923,
      "Hit": 6924,
      "fis": 6925,
      "survive": 6926,
      "idency": 6927,
      "Ow": 6928,
      "uncertain": 6929,
      "yield": 6930,
      "Oak": 6931,
      "drew": 6932,
      "Current": 6933,
      "Mayor": 6934,
      "Command": 6935,
      "emerged": 6936,
      "Son": 6937,
      "cel": 6938,
      "ESPN": 6939,
      "Master": 6940,
      "Premier": 6941,
      "lawyers": 6942,
      "extension": 6943,
      "Having": 6944,
      "partnership": 6945,
      "Anton": 6946,
      "Several": 6947,
      "brid": 6948,
      "proven": 6949,
      "neuro": 6950,
      "Offic": 6951,
      "posit": 6952,
      "principles": 6953,
      "trained": 6954,
      "thousand": 6955,
      "grass": 6956,
      "compete": 6957,
      "pounds": 6958,
      "enjoyed": 6959,
      "========": 6960,
      "finger": 6961,
      "gus": 6962,
      "Code": 6963,
      "reputation": 6964,
      "processes": 6965,
      "processing": 6966,
      "Alabama": 6967,
      "zed": 6968,
      "f0": 6969,
      "Bir": 6970,
      "125": 6971,
      "300000000000015": 6972,
      "priority": 6973,
      "unusual": 6974,
      "counted": 6975,
      "minority": 6976,
      "brut": 6977,
      "Sl": 6978,
      "Bernie": 6979,
      "acceptable": 6980,
      "downtown": 6981,
      "itals": 6982,
      "Rub": 6983,
      "inev": 6984,
      "Person": 6985,
      "negotiations": 6986,
      "democratic": 6987,
      "Emp": 6988,
      "perce": 6989,
      "thin": 6990,
      "roots": 6991,
      "Navy": 6992,
      "personnel": 6993,
      "prominent": 6994,
      "array": 6995,
      "mart": 6996,
      "explicit": 6997,
      "computers": 6998,
      "uine": 6999,
      "Development": 7000,
      "f8": 7001,
      "Action": 7002,
      "vised": 7003,
      "Education": 7004,
      "Ice": 7005,
      "ales": 7006,
      "sensitive": 7007,
      "thesis": 7008,
      "acceler": 7009,
      "areness": 7010,
      "ranked": 7011,
      "ATE": 7012,
      "toms": 7013,
      "discover": 7014,
      "moon": 7015,
      "covers": 7016,
      "adopted": 7017,
      "patterns": 7018,
      "cyber": 7019,
      "Rol": 7020,
      "Matthe": 7021,
      "mits": 7022,
      "component": 7023,
      "Rober": 7024,
      "esh": 7025,
      "Line": 7026,
      "140": 7027,
      "resulted": 7028,
      "130": 7029,
      "jury": 7030,
      "river": 7031,
      "Avenue": 7032,
      "contracts": 7033,
      "ampions": 7034,
      "SD": 7035,
      "hadn": 7036,
      "Lyn": 7037,
      "apparent": 7038,
      "Update": 7039,
      "contained": 7040,
      "Turkish": 7041,
      "veget": 7042,
      "scope": 7043,
      "clubs": 7044,
      "illed": 7045,
      "Jac": 7046,
      "Sho": 7047,
      "feelings": 7048,
      "reduction": 7049,
      "describes": 7050,
      "cig": 7051,
      "Zealand": 7052,
      "1996": 7053,
      "Atlanta": 7054,
      "ental": 7055,
      "containing": 7056,
      "distr": 7057,
      "god": 7058,
      "description": 7059,
      "label": 7060,
      "imper": 7061,
      "okie": 7062,
      "boards": 7063,
      "thick": 7064,
      "taxpay": 7065,
      "rarely": 7066,
      "Record": 7067,
      "recognized": 7068,
      "Related": 7069,
      "sanctions": 7070,
      "stun": 7071,
      "warrant": 7072,
      "everywhere": 7073,
      "producer": 7074,
      "iner": 7075,
      "Type": 7076,
      "iveness": 7077,
      "ighter": 7078,
      "sla": 7079,
      "loyal": 7080,
      "Liby": 7081,
      "permission": 7082,
      "uous": 7083,
      "advertising": 7084,
      "Ly": 7085,
      "gained": 7086,
      "iana": 7087,
      "Information": 7088,
      "Log": 7089,
      "Pass": 7090,
      "Tro": 7091,
      "Amendment": 7092,
      "interface": 7093,
      "settlement": 7094,
      "cameras": 7095,
      "implementation": 7096,
      "expectations": 7097,
      "boat": 7098,
      "walls": 7099,
      "scenario": 7100,
      "creates": 7101,
      "iped": 7102,
      "Event": 7103,
      "worthy": 7104,
      "Gul": 7105,
      "BE": 7106,
      "rolled": 7107,
      "arrange": 7108,
      "neck": 7109,
      "grounds": 7110,
      "serves": 7111,
      "UFC": 7112,
      "shortly": 7113,
      "practical": 7114,
      "counting": 7115,
      "falls": 7116,
      "1997": 7117,
      "tall": 7118,
      "ouch": 7119,
      "bec": 7120,
      "Patrick": 7121,
      "AI": 7122,
      "bind": 7123,
      "Num": 7124,
      "participate": 7125,
      "racist": 7126,
      "Was": 7127,
      "journalist": 7128,
      "detain": 7129,
      "End": 7130,
      "pir": 7131,
      "agric": 7132,
      "Community": 7133,
      "innov": 7134,
      "Know": 7135,
      "vy": 7136,
      "Allen": 7137,
      "genuine": 7138,
      "principle": 7139,
      "delay": 7140,
      "afted": 7141,
      "legitimate": 7142,
      "tone": 7143,
      "relief": 7144,
      "Email": 7145,
      "wonderful": 7146,
      "hide": 7147,
      "hitting": 7148,
      "saved": 7149,
      "crete": 7150,
      "liver": 7151,
      "gift": 7152,
      "700000000000015": 7153,
      "dozens": 7154,
      "Full": 7155,
      "counsel": 7156,
      "basketball": 7157,
      "extr": 7158,
      "ette": 7159,
      "sop": 7160,
      "thentic": 7161,
      "euro": 7162,
      "Ep": 7163,
      "vania": 7164,
      "ilton": 7165,
      "osex": 7166,
      "ALL": 7167,
      "Anthony": 7168,
      "fb": 7169,
      "poly": 7170,
      "memor": 7171,
      "philosophy": 7172,
      "Ale": 7173,
      "Bad": 7174,
      "syl": 7175,
      "losses": 7176,
      "legend": 7177,
      "Kingdom": 7178,
      "algorith": 7179,
      "march": 7180,
      "Roc": 7181,
      "IE": 7182,
      "stro": 7183,
      "MM": 7184,
      "mole": 7185,
      "asion": 7186,
      "banned": 7187,
      "quit": 7188,
      "grap": 7189,
      "McCain": 7190,
      "distur": 7191,
      "manufacturing": 7192,
      "airport": 7193,
      "Find": 7194,
      "Administration": 7195,
      "episodes": 7196,
      "indicated": 7197,
      "fled": 7198,
      "thy": 7199,
      "Jam": 7200,
      "endors": 7201,
      "chat": 7202,
      "visions": 7203,
      "deliber": 7204,
      "9d": 7205,
      "Main": 7206,
      "Former": 7207,
      "stup": 7208,
      "borrow": 7209,
      "indicate": 7210,
      "cession": 7211,
      "bra": 7212,
      "exclusive": 7213,
      "Everyone": 7214,
      "heading": 7215,
      "Queen": 7216,
      "RC": 7217,
      "convin": 7218,
      "unlike": 7219,
      "Hur": 7220,
      "Ted": 7221,
      "ethnic": 7222,
      "joining": 7223,
      "raw": 7224,
      "mel": 7225,
      "posing": 7226,
      "Fi": 7227,
      "Gun": 7228,
      "entering": 7229,
      "e0": 7230,
      "NOT": 7231,
      "Feb": 7232,
      "intellectual": 7233,
      "Columb": 7234,
      "males": 7235,
      "osexual": 7236,
      "behalf": 7237,
      "sis": 7238,
      "footage": 7239,
      "Christians": 7240,
      "Dy": 7241,
      "Cost": 7242,
      "horse": 7243,
      "profits": 7244,
      "exception": 7245,
      "apolog": 7246,
      "licens": 7247,
      "Lind": 7248,
      "struggling": 7249,
      "Flo": 7250,
      "Diego": 7251,
      "cannabis": 7252,
      "lessly": 7253,
      "destruction": 7254,
      "ora": 7255,
      "graduate": 7256,
      "lers": 7257,
      "haz": 7258,
      "flaw": 7259,
      "tackle": 7260,
      "stadium": 7261,
      "Conference": 7262,
      "shor": 7263,
      "uct": 7264,
      "external": 7265,
      "fing": 7266,
      "ucky": 7267,
      "dinner": 7268,
      "aska": 7269,
      "API": 7270,
      "1995": 7271,
      "Death": 7272,
      "Centre": 7273,
      "progressive": 7274,
      "GA": 7275,
      "normally": 7276,
      "Academy": 7277,
      "Think": 7278,
      "hired": 7279,
      "wine": 7280,
      "beliefs": 7281,
      "anna": 7282,
      "Bab": 7283,
      "sper": 7284,
      "frag": 7285,
      "nur": 7286,
      "Earlier": 7287,
      "convention": 7288,
      "bond": 7289,
      "Stone": 7290,
      "transform": 7291,
      "barely": 7292,
      "profession": 7293,
      "sin": 7294,
      "txt00006440000000000000000000007": 7295,
      "structures": 7296,
      "Ca": 7297,
      "160": 7298,
      "adequ": 7299,
      "quiet": 7300,
      "Family": 7301,
      "Dol": 7302,
      "MORE": 7303,
      "Ball": 7304,
      "pod": 7305,
      "bits": 7306,
      "________________": 7307,
      "astro": 7308,
      "Id": 7309,
      "deem": 7310,
      "filter": 7311,
      "roles": 7312,
      "gear": 7313,
      "movements": 7314,
      "Aud": 7315,
      "rific": 7316,
      "delivery": 7317,
      "mac": 7318,
      "Roy": 7319,
      "Medical": 7320,
      "farmers": 7321,
      "menu": 7322,
      "electronic": 7323,
      "ued": 7324,
      "gonna": 7325,
      "Sept": 7326,
      "sque": 7327,
      "Ker": 7328,
      "retired": 7329,
      "NSA": 7330,
      "Walker": 7331,
      "Spring": 7332,
      "burgh": 7333,
      "tribut": 7334,
      "achieved": 7335,
      "languages": 7336,
      "Six": 7337,
      "chant": 7338,
      "Conservative": 7339,
      "Point": 7340,
      "thrown": 7341,
      "credi": 7342,
      "Kansas": 7343,
      "stall": 7344,
      "ounce": 7345,
      "spin": 7346,
      "forever": 7347,
      "oh": 7348,
      "MB": 7349,
      "proportion": 7350,
      "terrorists": 7351,
      "recognition": 7352,
      "Golden": 7353,
      "listening": 7354,
      "timore": 7355,
      "Pu": 7356,
      "loud": 7357,
      "YO": 7358,
      "onet": 7359,
      "5d": 7360,
      "technique": 7361,
      "reviews": 7362,
      "seas": 7363,
      "Tun": 7364,
      "iary": 7365,
      "interviews": 7366,
      "Division": 7367,
      "deter": 7368,
      "igen": 7369,
      "Town": 7370,
      "hr": 7371,
      "5c": 7372,
      "Cameron": 7373,
      "roof": 7374,
      "Latin": 7375,
      "Hey": 7376,
      "settle": 7377,
      "ento": 7378,
      "closing": 7379,
      "bilities": 7380,
      "regulation": 7381,
      "Broad": 7382,
      "affili": 7383,
      "acks": 7384,
      "Beach": 7385,
      "9c": 7386,
      "ifest": 7387,
      "Cry": 7388,
      "dies": 7389,
      "conventional": 7390,
      "idespread": 7391,
      "Assad": 7392,
      "e8": 7393,
      "nominee": 7394,
      "udes": 7395,
      "framework": 7396,
      "Mars": 7397,
      "grid": 7398,
      "ownership": 7399,
      "Chair": 7400,
      "ingu": 7401,
      "Figure": 7402,
      "challenging": 7403,
      "Santa": 7404,
      "fruit": 7405,
      "smooth": 7406,
      "Box": 7407,
      "ultimate": 7408,
      "breaks": 7409,
      "reliable": 7410,
      "1st": 7411,
      "awareness": 7412,
      "Fun": 7413,
      "Fest": 7414,
      "Ag": 7415,
      "verage": 7416,
      "sugar": 7417,
      "lins": 7418,
      "Sure": 7419,
      "physic": 7420,
      "strategic": 7421,
      "UI": 7422,
      "ules": 7423,
      "convinced": 7424,
      "regist": 7425,
      "dynamic": 7426,
      "collapse": 7427,
      "Square": 7428,
      "5b": 7429,
      "ocean": 7430,
      "thread": 7431,
      "welfare": 7432,
      "Lef": 7433,
      "orbit": 7434,
      "rass": 7435,
      "athy": 7436,
      "Environment": 7437,
      "Pennsyl": 7438,
      "crypto": 7439,
      "Sem": 7440,
      "'.": 7441,
      "logic": 7442,
      "corporations": 7443,
      "Sams": 7444,
      "classified": 7445,
      "convicted": 7446,
      "vary": 7447,
      "hill": 7448,
      "representative": 7449,
      "Later": 7450,
      "compat": 7451,
      "Price": 7452,
      "genetic": 7453,
      "promises": 7454,
      "milk": 7455,
      "Freedom": 7456,
      "peak": 7457,
      "lucky": 7458,
      "hash": 7459,
      "Albert": 7460,
      "Engine": 7461,
      "fiscal": 7462,
      "Sus": 7463,
      "bars": 7464,
      "restrictions": 7465,
      "bail": 7466,
      "Austin": 7467,
      "inating": 7468,
      "Mess": 7469,
      "smoke": 7470,
      "suggesting": 7471,
      "Pit": 7472,
      "independence": 7473,
      "shore": 7474,
      "devast": 7475,
      "transgender": 7476,
      "rapidly": 7477,
      "alien": 7478,
      "liquid": 7479,
      "Anderson": 7480,
      "mers": 7481,
      "aka": 7482,
      "Hosp": 7483,
      "sorry": 7484,
      "tical": 7485,
      "overwhelming": 7486,
      "Baltimore": 7487,
      "usage": 7488,
      "coins": 7489,
      "viously": 7490,
      "Page": 7491,
      "ication": 7492,
      "equally": 7493,
      "tickets": 7494,
      "360": 7495,
      "lete": 7496,
      "Dave": 7497,
      "begun": 7498,
      "20th": 7499,
      "illness": 7500,
      "lu": 7501,
      "Xbox": 7502,
      "hen": 7503,
      "%,": 7504,
      "association": 7505,
      "Las": 7506,
      "Low": 7507,
      "invited": 7508,
      "Iranian": 7509,
      "noise": 7510,
      "Pot": 7511,
      "cker": 7512,
      "het": 7513,
      "connections": 7514,
      "riers": 7515,
      "rie": 7516,
      "nit": 7517,
      "paralle": 7518,
      "riots": 7519,
      "perior": 7520,
      "reducing": 7521,
      "2nd": 7522,
      "featuring": 7523,
      "akers": 7524,
      "icting": 7525,
      "notion": 7526,
      "Ku": 7527,
      "ja": 7528,
      "captain": 7529,
      "viewers": 7530,
      "discovery": 7531,
      "scores": 7532,
      "Sony": 7533,
      "Cit": 7534,
      "tab": 7535,
      "versus": 7536,
      "Review": 7537,
      "ouver": 7538,
      "widespread": 7539,
      "estimate": 7540,
      "Lewis": 7541,
      "Pennsylvania": 7542,
      "thon": 7543,
      "icking": 7544,
      "fantasy": 7545,
      "1990s": 7546,
      "sover": 7547,
      "usive": 7548,
      "throwing": 7549,
      "hardly": 7550,
      "Arabia": 7551,
      "documented": 7552,
      "Control": 7553,
      "contribute": 7554,
      "campaigns": 7555,
      "ridicul": 7556,
      "mont": 7557,
      "Base": 7558,
      "aded": 7559,
      "exceed": 7560,
      "Design": 7561,
      "asters": 7562,
      "9b": 7563,
      "Aff": 7564,
      "WA": 7565,
      "Liver": 7566,
      "eastern": 7567,
      "websites": 7568,
      "Hand": 7569,
      "performing": 7570,
      "tts": 7571,
      "soul": 7572,
      "ossil": 7573,
      "outing": 7574,
      "portr": 7575,
      "prepare": 7576,
      "alo": 7577,
      "carefully": 7578,
      "1994": 7579,
      "vital": 7580,
      "Samsung": 7581,
      "rhe": 7582,
      "graphics": 7583,
      "repair": 7584,
      "Age": 7585,
      "Five": 7586,
      "Sel": 7587,
      "unclear": 7588,
      "failing": 7589,
      "EST": 7590,
      "Sor": 7591,
      "spaces": 7592,
      "fro": 7593,
      "stupid": 7594,
      "Copy": 7595,
      "viewed": 7596,
      "Moon": 7597,
      "Ministry": 7598,
      "casual": 7599,
      "Execut": 7600,
      "hoc": 7601,
      "Vanc": 7602,
      "deputy": 7603,
      "legs": 7604,
      "ione": 7605,
      "statistics": 7606,
      "minds": 7607,
      "Cook": 7608,
      "sels": 7609,
      "Stri": 7610,
      "OD": 7611,
      "behaviour": 7612,
      "guarante": 7613,
      "Kenned": 7614,
      "Anim": 7615,
      "resource": 7616,
      "threatening": 7617,
      "jur": 7618,
      "initiative": 7619,
      "parame": 7620,
      "hydro": 7621,
      "fighter": 7622,
      "investigate": 7623,
      "iOS": 7624,
      "respectively": 7625,
      "Pict": 7626,
      "scandal": 7627,
      "involvement": 7628,
      "Guardian": 7629,
      "veland": 7630,
      "Associated": 7631,
      "papers": 7632,
      "rome": 7633,
      "deeper": 7634,
      "quote": 7635,
      "Vancouver": 7636,
      "Ban": 7637,
      "FF": 7638,
      "breath": 7639,
      "####": 7640,
      "aches": 7641,
      "Hope": 7642,
      "implemented": 7643,
      "600000000000015": 7644,
      "decent": 7645,
      "anybody": 7646,
      "promising": 7647,
      "ignore": 7648,
      "ols": 7649,
      "Museum": 7650,
      "VE": 7651,
      "tz": 7652,
      "Football": 7653,
      "Tok": 7654,
      "inf": 7655,
      "Massach": 7656,
      "collective": 7657,
      "hibition": 7658,
      "Greece": 7659,
      "substantial": 7660,
      "echo": 7661,
      "rocket": 7662,
      "lah": 7663,
      "unemployment": 7664,
      "thal": 7665,
      "00000000000000In": 7666,
      "settings": 7667,
      "lips": 7668,
      "reven": 7669,
      "Howard": 7670,
      "oured": 7671,
      "seed": 7672,
      "virus": 7673,
      "improvements": 7674,
      "touchdown": 7675,
      "tie": 7676,
      "barrel": 7677,
      "Massachuse": 7678,
      "icious": 7679,
      "Columbia": 7680,
      "complaints": 7681,
      "referring": 7682,
      "subjects": 7683,
      "inflation": 7684,
      "endum": 7685,
      "Revolution": 7686,
      "115": 7687,
      "Mos": 7688,
      "Andre": 7689,
      "Sab": 7690,
      "entertainment": 7691,
      "diversity": 7692,
      "tu": 7693,
      "attacking": 7694,
      "dramatic": 7695,
      "maps": 7696,
      "Lev": 7697,
      "dates": 7698,
      "Chel": 7699,
      "races": 7700,
      "Massachusetts": 7701,
      "bone": 7702,
      "intervention": 7703,
      "wages": 7704,
      "attached": 7705,
      "xx": 7706,
      "reci": 7707,
      "disappoint": 7708,
      "Fix": 7709,
      "1980s": 7710,
      "Stor": 7711,
      "tempt": 7712,
      "Nev": 7713,
      "Credit": 7714,
      "rural": 7715,
      "iversary": 7716,
      "tasks": 7717,
      "??": 7718,
      "iro": 7719,
      "Han": 7720,
      "ounced": 7721,
      "preser": 7722,
      "fallen": 7723,
      "unior": 7724,
      "azz": 7725,
      "aze": 7726,
      "samples": 7727,
      "tics": 7728,
      "enny": 7729,
      "Kennedy": 7730,
      "conspiracy": 7731,
      "assage": 7732,
      "improvement": 7733,
      "stake": 7734,
      "handling": 7735,
      "Ell": 7736,
      "Gaza": 7737,
      "Vegas": 7738,
      "olen": 7739,
      "recip": 7740,
      "recommended": 7741,
      "controversy": 7742,
      "Pent": 7743,
      "\")": 7744,
      "migration": 7745,
      "Justin": 7746,
      "publication": 7747,
      "neighbour": 7748,
      "ambit": 7749,
      "extend": 7750,
      "secre": 7751,
      "Bang": 7752,
      "panic": 7753,
      "iler": 7754,
      "spark": 7755,
      "Cleveland": 7756,
      "ikes": 7757,
      "UL": 7758,
      "Safe": 7759,
      "Tha": 7760,
      "handful": 7761,
      "Marvel": 7762,
      "medicine": 7763,
      "inois": 7764,
      "ffect": 7765,
      "attempting": 7766,
      "embarrass": 7767,
      "authentic": 7768,
      "swing": 7769,
      "gathered": 7770,
      "tracking": 7771,
      "uma": 7772,
      "vals": 7773,
      "boom": 7774,
      "nan": 7775,
      "AFP": 7776,
      "dance": 7777,
      "reader": 7778,
      "Som": 7779,
      "nest": 7780,
      "magn": 7781,
      "steel": 7782,
      "Atlantic": 7783,
      "trem": 7784,
      "purchased": 7785,
      "pump": 7786,
      "platforms": 7787,
      "activist": 7788,
      "discussions": 7789,
      "enormous": 7790,
      "actively": 7791,
      "missile": 7792,
      "testim": 7793,
      "nett": 7794,
      "ingred": 7795,
      "NATO": 7796,
      "Championship": 7797,
      "shoulder": 7798,
      "GT": 7799,
      "expanded": 7800,
      "humanity": 7801,
      "9a": 7802,
      "brothers": 7803,
      "Mountain": 7804,
      "suspected": 7805,
      "affairs": 7806,
      "jac": 7807,
      "beth": 7808,
      "Ak": 7809,
      "gains": 7810,
      "civilians": 7811,
      "tery": 7812,
      "addressed": 7813,
      "morrow": 7814,
      "visitors": 7815,
      "ura": 7816,
      "symptoms": 7817,
      "Illinois": 7818,
      "Final": 7819,
      "RT": 7820,
      "mary": 7821,
      "remarks": 7822,
      "mortal": 7823,
      "toxic": 7824,
      "chapter": 7825,
      "forest": 7826,
      "drama": 7827,
      "lowest": 7828,
      "choos": 7829,
      "yellow": 7830,
      "seemingly": 7831,
      "8d": 7832,
      "astron": 7833,
      "Being": 7834,
      "thir": 7835,
      "Intel": 7836,
      "tweeted": 7837,
      "itchen": 7838,
      "Mexican": 7839,
      "spiritual": 7840,
      "amid": 7841,
      "Da": 7842,
      "width": 7843,
      "Intelligence": 7844,
      "opinions": 7845,
      "tea": 7846,
      "Cho": 7847,
      "Stadium": 7848,
      "investigators": 7849,
      "Short": 7850,
      "femin": 7851,
      "silver": 7852,
      "Jonathan": 7853,
      "2020": 7854,
      "clothes": 7855,
      "entre": 7856,
      "horror": 7857,
      "eration": 7858,
      "waves": 7859,
      "Iraqi": 7860,
      "iny": 7861,
      "tomorrow": 7862,
      "asty": 7863,
      "Photos": 7864,
      "onso": 7865,
      "salary": 7866,
      "suits": 7867,
      "oft": 7868,
      "weets": 7869,
      "persist": 7870,
      "domain": 7871,
      "console": 7872,
      "titled": 7873,
      "Iron": 7874,
      "101": 7875,
      "investigating": 7876,
      "Magic": 7877,
      "Support": 7878,
      "virtually": 7879,
      "wrest": 7880,
      "involves": 7881,
      "withdraw": 7882,
      "bird": 7883,
      "stayed": 7884,
      "colors": 7885,
      "suspended": 7886,
      "CON": 7887,
      "resign": 7888,
      "divided": 7889,
      "burden": 7890,
      "consistently": 7891,
      "Below": 7892,
      "intendo": 7893,
      "checks": 7894,
      "nick": 7895,
      "protein": 7896,
      "bureau": 7897,
      "hob": 7898,
      "Unlike": 7899,
      "cler": 7900,
      "personality": 7901,
      "ballot": 7902,
      "threw": 7903,
      "depends": 7904,
      "assign": 7905,
      "waters": 7906,
      "transportation": 7907,
      "paint": 7908,
      "bacter": 7909,
      "advocates": 7910,
      "5a": 7911,
      "voter": 7912,
      "rical": 7913,
      "Sarah": 7914,
      "riot": 7915,
      "inquir": 7916,
      "Mrs": 7917,
      "coaches": 7918,
      "helpful": 7919,
      "Mun": 7920,
      "FI": 7921,
      "Quest": 7922,
      "Okla": 7923,
      "EP": 7924,
      "Ga": 7925,
      "Rather": 7926,
      "bee": 7927,
      "absence": 7928,
      "Similar": 7929,
      "providers": 7930,
      "Obam": 7931,
      "Liverpool": 7932,
      "HA": 7933,
      "Hospital": 7934,
      "Nintendo": 7935,
      "Sean": 7936,
      "bury": 7937,
      "export": 7938,
      "Psy": 7939,
      "careful": 7940,
      "Pres": 7941,
      "loans": 7942,
      "painting": 7943,
      "Pur": 7944,
      "180": 7945,
      "Left": 7946,
      "offices": 7947,
      "Refer": 7948,
      "350": 7949,
      "fossil": 7950,
      "sheet": 7951,
      "Indiana": 7952,
      "Alexander": 7953,
      "Table": 7954,
      "correctly": 7955,
      "Would": 7956,
      "protocol": 7957,
      "Utah": 7958,
      "xit": 7959,
      "efficiency": 7960,
      "Nic": 7961,
      "geon": 7962,
      "speaks": 7963,
      "settled": 7964,
      "1992": 7965,
      ".-": 7966,
      "attitude": 7967,
      "birds": 7968,
      "ifies": 7969,
      "premium": 7970,
      "oty": 7971,
      "bread": 7972,
      "Lau": 7973,
      "txt00006440000000000000000000014": 7974,
      "1000": 7975,
      "ria": 7976,
      "exit": 7977,
      "Friend": 7978,
      "Der": 7979,
      "Ruby": 7980,
      "jer": 7981,
      "Tra": 7982,
      "fantastic": 7983,
      "ifications": 7984,
      "Brow": 7985,
      "Pos": 7986,
      "Ontar": 7987,
      "lane": 7988,
      "cular": 7989,
      "Rem": 7990,
      "Technology": 7991,
      "joke": 7992,
      "Roberts": 7993,
      "noting": 7994,
      "Eag": 7995,
      "slo": 7996,
      "Cer": 7997,
      "brown": 7998,
      "105": 7999,
      "ranks": 8000,
      "dust": 8001,
      "Portland": 8002,
      "naturally": 8003,
      "Moham": 8004,
      "depression": 8005,
      "8b": 8006,
      "exem": 8007,
      "conservatives": 8008,
      "comedy": 8009,
      "shield": 8010,
      "upset": 8011,
      "cream": 8012,
      "innovation": 8013,
      "Bloom": 8014,
      "conversations": 8015,
      "elev": 8016,
      "Article": 8017,
      "MAN": 8018,
      "holes": 8019,
      "cot": 8020,
      "hu": 8021,
      "Treas": 8022,
      "improving": 8023,
      "tape": 8024,
      "Pa": 8025,
      "3rd": 8026,
      "8c": 8027,
      "replacement": 8028,
      "absor": 8029,
      "abol": 8030,
      "mini": 8031,
      "soil": 8032,
      "distributed": 8033,
      "Denver": 8034,
      "ili": 8035,
      "Corpor": 8036,
      "representing": 8037,
      "nell": 8038,
      "aron": 8039,
      "commonly": 8040,
      "shadow": 8041,
      "tern": 8042,
      "compass": 8043,
      "acknowledged": 8044,
      "rhetor": 8045,
      "margin": 8046,
      "prev": 8047,
      "Cow": 8048,
      "protecting": 8049,
      "musical": 8050,
      "neys": 8051,
      "!)": 8052,
      "Front": 8053,
      "pling": 8054,
      "phrase": 8055,
      "transactions": 8056,
      "defeated": 8057,
      "legacy": 8058,
      "incidents": 8059,
      "Wa": 8060,
      "scholar": 8061,
      "Pet": 8062,
      "eco": 8063,
      "Should": 8064,
      "cust": 8065,
      "Mit": 8066,
      "contributions": 8067,
      "Speaking": 8068,
      "innocent": 8069,
      "twenty": 8070,
      "racism": 8071,
      "amm": 8072,
      "guarantee": 8073,
      "Qa": 8074,
      "itary": 8075,
      "Anna": 8076,
      "Ox": 8077,
      "\".[": 8078,
      "quer": 8079,
      "appreciate": 8080,
      "Pho": 8081,
      "Silver": 8082,
      "Market": 8083,
      "judges": 8084,
      "1993": 8085,
      "encouraged": 8086,
      "Chelsea": 8087,
      "gig": 8088,
      "Children": 8089,
      "tum": 8090,
      "itionally": 8091,
      "Liberal": 8092,
      "logical": 8093,
      "''": 8094,
      "spots": 8095,
      "spokesperson": 8096,
      "skept": 8097,
      "fears": 8098,
      "Sweden": 8099,
      "urn": 8100,
      "Everything": 8101,
      "subsequent": 8102,
      "VA": 8103,
      "Custom": 8104,
      "flix": 8105,
      "MD": 8106,
      "Az": 8107,
      "receiver": 8108,
      "JP": 8109,
      "hyper": 8110,
      "visiting": 8111,
      "Ontario": 8112,
      "IO": 8113,
      "Steven": 8114,
      "wich": 8115,
      "bless": 8116,
      "mistakes": 8117,
      "festival": 8118,
      "measured": 8119,
      "len": 8120,
      "Warren": 8121,
      "Early": 8122,
      "entr": 8123,
      "arts": 8124,
      "guitar": 8125,
      "championship": 8126,
      "stolen": 8127,
      "temperatures": 8128,
      "accessible": 8129,
      "upgrade": 8130,
      "pound": 8131,
      "homeless": 8132,
      "encry": 8133,
      "bust": 8134,
      "ocol": 8135,
      "permit": 8136,
      "Empire": 8137,
      "referendum": 8138,
      "diverse": 8139,
      "Indust": 8140,
      "bub": 8141,
      "ignored": 8142,
      "monitoring": 8143,
      "abandoned": 8144,
      "studied": 8145,
      "EX": 8146,
      "aug": 8147,
      "guards": 8148,
      "Priv": 8149,
      "assessment": 8150,
      "balls": 8151,
      "cription": 8152,
      "equality": 8153,
      "responses": 8154,
      "Ren": 8155,
      "Hz": 8156,
      "void": 8157,
      "acare": 8158,
      "acquired": 8159,
      "\">": 8160,
      "functional": 8161,
      "membership": 8162,
      "Nothing": 8163,
      "Reddit": 8164,
      "Bridge": 8165,
      "copies": 8166,
      "printed": 8167,
      "pron": 8168,
      "Jere": 8169,
      "introduction": 8170,
      "Leon": 8171,
      "accomplish": 8172,
      "CB": 8173,
      "itage": 8174,
      "chron": 8175,
      "Brexit": 8176,
      "unions": 8177,
      "Level": 8178,
      "Gil": 8179,
      "rear": 8180,
      "provin": 8181,
      "appearances": 8182,
      "Galaxy": 8183,
      "FOR": 8184,
      "acid": 8185,
      "ramp": 8186,
      "eligible": 8187,
      "pton": 8188,
      "acking": 8189,
      "Oklahom": 8190,
      "forecast": 8191,
      "inge": 8192,
      "nights": 8193,
      "Governor": 8194,
      "literature": 8195,
      "lux": 8196,
      "annon": 8197,
      "grat": 8198,
      "400000000000015": 8199,
      "owns": 8200,
      "Ni": 8201,
      "Remember": 8202,
      "Mobile": 8203,
      "Beij": 8204,
      "lunch": 8205,
      "labe": 8206,
      "revers": 8207,
      "dump": 8208,
      "Total": 8209,
      "striking": 8210,
      "Graham": 8211,
      "fits": 8212,
      "intr": 8213,
      "Map": 8214,
      "letting": 8215,
      "Tes": 8216,
      "Netflix": 8217,
      "shopping": 8218,
      "Player": 8219,
      "blocked": 8220,
      "rescue": 8221,
      "cope": 8222,
      "revel": 8223,
      "html": 8224,
      "burning": 8225,
      "Obamacare": 8226,
      "cuss": 8227,
      "cow": 8228,
      "pig": 8229,
      "museum": 8230,
      "demonstrated": 8231,
      "bassador": 8232,
      "Edward": 8233,
      "tons": 8234,
      "passengers": 8235,
      "oblig": 8236,
      "midfield": 8237,
      "desc": 8238,
      "una": 8239,
      "riding": 8240,
      "Beijing": 8241,
      "Much": 8242,
      "answered": 8243,
      "scientist": 8244,
      "haust": 8245,
      "inction": 8246,
      "firing": 8247,
      "frequency": 8248,
      "memo": 8249,
      "smoking": 8250,
      "beauty": 8251,
      "deficit": 8252,
      "bold": 8253,
      "Kong": 8254,
      "Gary": 8255,
      "secondary": 8256,
      "ratio": 8257,
      "Download": 8258,
      "sequence": 8259,
      "Had": 8260,
      "gif": 8261,
      "oxy": 8262,
      "soccer": 8263,
      "ieties": 8264,
      "Carl": 8265,
      "900": 8266,
      "Dutch": 8267,
      "adap": 8268,
      "Things": 8269,
      "hire": 8270,
      "vig": 8271,
      "amb": 8272,
      "jok": 8273,
      "mathem": 8274,
      "Assem": 8275,
      "Online": 8276,
      "VP": 8277,
      "tourist": 8278,
      "Sound": 8279,
      "Mult": 8280,
      "artific": 8281,
      "Shad": 8282,
      "weekly": 8283,
      "Hamilton": 8284,
      "eding": 8285,
      "Rap": 8286,
      "universal": 8287,
      "manifest": 8288,
      "stages": 8289,
      "arrive": 8290,
      "Access": 8291,
      "Budd": 8292,
      "mock": 8293,
      "tips": 8294,
      "nomination": 8295,
      "lat": 8296,
      "persons": 8297,
      "Bruce": 8298,
      "kit": 8299,
      "concrete": 8300,
      "submit": 8301,
      "Oklahoma": 8302,
      "1970s": 8303,
      "hook": 8304,
      "txt00006440000000000000000000015": 8305,
      "semi": 8306,
      "transit": 8307,
      "Therefore": 8308,
      "introduce": 8309,
      "politically": 8310,
      "affordable": 8311,
      "Peters": 8312,
      "Uber": 8313,
      "sections": 8314,
      "Lis": 8315,
      "Local": 8316,
      "Bureau": 8317,
      "Rs": 8318,
      "pup": 8319,
      "pressing": 8320,
      "Paren": 8321,
      "circle": 8322,
      "targeting": 8323,
      "Syd": 8324,
      "static": 8325,
      "supplies": 8326,
      "mechanism": 8327,
      "Eliza": 8328,
      "logo": 8329,
      "berry": 8330,
      "idi": 8331,
      "ials": 8332,
      "Belg": 8333,
      "okay": 8334,
      "Philipp": 8335,
      "proposals": 8336,
      "Beng": 8337,
      "modu": 8338,
      "hockey": 8339,
      "headquarters": 8340,
      "Award": 8341,
      "haul": 8342,
      "jan": 8343,
      "insisted": 8344,
      "Could": 8345,
      "comprehensive": 8346,
      "pill": 8347,
      "orn": 8348,
      "shops": 8349,
      "capabilities": 8350,
      "UP": 8351,
      "tens": 8352,
      "Tax": 8353,
      "Olympic": 8354,
      "replied": 8355,
      "BB": 8356,
      "uted": 8357,
      "KE": 8358,
      "Spec": 8359,
      "170": 8360,
      "clude": 8361,
      "criticized": 8362,
      "wars": 8363,
      "Maryland": 8364,
      "Morris": 8365,
      "Harvard": 8366,
      "popularity": 8367,
      "dominant": 8368,
      "hoped": 8369,
      "Batman": 8370,
      "Auto": 8371,
      "heroes": 8372,
      "1950": 8373,
      "Mach": 8374,
      "iley": 8375,
      "compare": 8376,
      "Carter": 8377,
      "anne": 8378,
      "Block": 8379,
      "bors": 8380,
      "vit": 8381,
      "programme": 8382,
      "universities": 8383,
      "Simon": 8384,
      "brilli": 8385,
      "orate": 8386,
      "chicken": 8387,
      "eing": 8388,
      "cigare": 8389,
      "Vice": 8390,
      "Capital": 8391,
      "kilome": 8392,
      "Dog": 8393,
      "populations": 8394,
      "icop": 8395,
      "releases": 8396,
      "Murray": 8397,
      "vous": 8398,
      "Rac": 8399,
      "Vill": 8400,
      "courage": 8401,
      "veterans": 8402,
      "enix": 8403,
      "survival": 8404,
      "Gi": 8405,
      "Dur": 8406,
      "Crime": 8407,
      "swim": 8408,
      "Until": 8409,
      "archy": 8410,
      "eign": 8411,
      "fate": 8412,
      "Ark": 8413,
      "chest": 8414,
      "entitled": 8415,
      "usalem": 8416,
      "abroad": 8417,
      "urged": 8418,
      "requested": 8419,
      "contrad": 8420,
      "mans": 8421,
      "presum": 8422,
      "Consider": 8423,
      "shame": 8424,
      "dub": 8425,
      "dismissed": 8426,
      "centers": 8427,
      "senator": 8428,
      "predicted": 8429,
      "Qaeda": 8430,
      "112": 8431,
      "Ultim": 8432,
      "presidency": 8433,
      "Represent": 8434,
      "Marx": 8435,
      "Lt": 8436,
      "drove": 8437,
      "gross": 8438,
      "confront": 8439,
      "assigned": 8440,
      "sians": 8441,
      "landscape": 8442,
      "whenever": 8443,
      "Jerusalem": 8444,
      "loose": 8445,
      "1991": 8446,
      "Trade": 8447,
      "Morgan": 8448,
      "satellite": 8449,
      "BR": 8450,
      "heim": 8451,
      "pointing": 8452,
      "documentary": 8453,
      "Case": 8454,
      "Official": 8455,
      "objective": 8456,
      "Natur": 8457,
      "Rest": 8458,
      "Ka": 8459,
      "Captain": 8460,
      "reverse": 8461,
      "exhaust": 8462,
      "umes": 8463,
      "pursue": 8464,
      "monthly": 8465,
      "anny": 8466,
      "Scient": 8467,
      "Moreover": 8468,
      "retirement": 8469,
      "Buy": 8470,
      "thetic": 8471,
      "Si": 8472,
      "enez": 8473,
      "module": 8474,
      "banking": 8475,
      "designs": 8476,
      "congressional": 8477,
      "irts": 8478,
      "bias": 8479,
      "arbit": 8480,
      "windows": 8481,
      "wealthy": 8482,
      "8a": 8483,
      "twist": 8484,
      "ultane": 8485,
      "streaming": 8486,
      "pocket": 8487,
      "replic": 8488,
      "maintained": 8489,
      "voices": 8490,
      "quoted": 8491,
      "MC": 8492,
      "Bible": 8493,
      "ika": 8494,
      "Chap": 8495,
      "atre": 8496,
      "extract": 8497,
      "eu": 8498,
      "wider": 8499,
      "Change": 8500,
      "tower": 8501,
      "Produ": 8502,
      "BL": 8503,
      "remarkable": 8504,
      "jet": 8505,
      "anxiety": 8506,
      "inches": 8507,
      "Leader": 8508,
      "recall": 8509,
      "knee": 8510,
      "Cro": 8511,
      "stepped": 8512,
      "violation": 8513,
      "XX": 8514,
      "qualified": 8515,
      "disorder": 8516,
      "mph": 8517,
      "ctr": 8518,
      "Sat": 8519,
      "channels": 8520,
      "spokeswoman": 8521,
      "prisoners": 8522,
      "demanding": 8523,
      "Kick": 8524,
      "architect": 8525,
      "Len": 8526,
      "pipeline": 8527,
      "Charlie": 8528,
      "Scottish": 8529,
      "testimony": 8530,
      "resem": 8531,
      "thorough": 8532,
      "Michel": 8533,
      "gaining": 8534,
      "nie": 8535,
      "acre": 8536,
      "producers": 8537,
      "submitted": 8538,
      "Vietnam": 8539,
      "landing": 8540,
      "deny": 8541,
      "entrepre": 8542,
      "odds": 8543,
      "tha": 8544,
      "sustainable": 8545,
      "athletes": 8546,
      "outrage": 8547,
      "representatives": 8548,
      "Berlin": 8549,
      "tenance": 8550,
      "restaurants": 8551,
      "bonus": 8552,
      "questioned": 8553,
      "approached": 8554,
      "Tennes": 8555,
      "accus": 8556,
      "Tai": 8557,
      "hosted": 8558,
      "harassment": 8559,
      "Abu": 8560,
      "crush": 8561,
      "Bri": 8562,
      "autonom": 8563,
      "Store": 8564,
      "Digital": 8565,
      "beating": 8566,
      "salt": 8567,
      "Pier": 8568,
      "tactics": 8569,
      "rolls": 8570,
      "aga": 8571,
      "focusing": 8572,
      "organic": 8573,
      "unexpected": 8574,
      "stability": 8575,
      "kers": 8576,
      "propaganda": 8577,
      "********": 8578,
      "dying": 8579,
      "Cab": 8580,
      "rations": 8581,
      "bian": 8582,
      "ranking": 8583,
      "Sydney": 8584,
      "overseas": 8585,
      "fault": 8586,
      "childhood": 8587,
      "Hell": 8588,
      "experiments": 8589,
      "175": 8590,
      "generations": 8591,
      "Clark": 8592,
      "jun": 8593,
      "Sav": 8594,
      "relax": 8595,
      "Nazi": 8596,
      "celebrate": 8597,
      "Hong": 8598,
      "errors": 8599,
      "surprisingly": 8600,
      "grave": 8601,
      "Yemen": 8602,
      "Others": 8603,
      "Var": 8604,
      "anniversary": 8605,
      "ila": 8606,
      "dominated": 8607,
      "ahu": 8608,
      "MI": 8609,
      "legislative": 8610,
      "investigations": 8611,
      "ckets": 8612,
      "tables": 8613,
      "savings": 8614,
      "surely": 8615,
      "differently": 8616,
      "preparing": 8617,
      "household": 8618,
      "healthcare": 8619,
      "ouri": 8620,
      "sized": 8621,
      "picking": 8622,
      "aus": 8623,
      "ratings": 8624,
      "HO": 8625,
      "Recent": 8626,
      "Grant": 8627,
      "picks": 8628,
      "consideration": 8629,
      "argues": 8630,
      "ologists": 8631,
      "genes": 8632,
      "enjo": 8633,
      "Dick": 8634,
      "repeat": 8635,
      "boxes": 8636,
      "Ross": 8637,
      "fortunate": 8638,
      "Instag": 8639,
      "tremend": 8640,
      "rounds": 8641,
      "athers": 8642,
      "silence": 8643,
      "meal": 8644,
      "consent": 8645,
      "ashing": 8646,
      "clinical": 8647,
      "Publ": 8648,
      "Prov": 8649,
      "tube": 8650,
      "civilian": 8651,
      "ashes": 8652,
      "dating": 8653,
      "f9": 8654,
      "escal": 8655,
      "Palestinians": 8656,
      "Gulf": 8657,
      "Order": 8658,
      "hopefully": 8659,
      "arguing": 8660,
      "ICE": 8661,
      "inser": 8662,
      "broader": 8663,
      "DV": 8664,
      "vet": 8665,
      "realistic": 8666,
      "113": 8667,
      "opens": 8668,
      "SN": 8669,
      "Arsen": 8670,
      "stron": 8671,
      "Jen": 8672,
      "phenomenon": 8673,
      "consensus": 8674,
      "Dragon": 8675,
      "ala": 8676,
      "mortg": 8677,
      "hatt": 8678,
      "Trust": 8679,
      "deadly": 8680,
      "Instagram": 8681,
      "aired": 8682,
      "Assembly": 8683,
      "EPA": 8684,
      "trillion": 8685,
      "calm": 8686,
      "Fred": 8687,
      "persu": 8688,
      "Matthew": 8689,
      "execution": 8690,
      "Bag": 8691,
      "atar": 8692,
      "bis": 8693,
      "Hub": 8694,
      "reveals": 8695,
      "instructions": 8696,
      "torture": 8697,
      "orious": 8698,
      "puzz": 8699,
      "b6": 8700,
      "ocolate": 8701,
      "cure": 8702,
      "faction": 8703,
      "reforms": 8704,
      "cheese": 8705,
      "assass": 8706,
      "awarded": 8707,
      "shipping": 8708,
      "asting": 8709,
      "trait": 8710,
      "19th": 8711,
      "ira": 8712,
      "promoting": 8713,
      "ceremony": 8714,
      "precisely": 8715,
      "smartphone": 8716,
      "sher": 8717,
      "newsletter": 8718,
      "stored": 8719,
      "architecture": 8720,
      "citation": 8721,
      "Third": 8722,
      "gathering": 8723,
      "cooperation": 8724,
      "imposed": 8725,
      "TER": 8726,
      "oms": 8727,
      "emerging": 8728,
      "ique": 8729,
      "Na": 8730,
      "expanding": 8731,
      "tonight": 8732,
      "Mail": 8733,
      "1989": 8734,
      "entity": 8735,
      "sorts": 8736,
      "categories": 8737,
      "cam": 8738,
      "analyst": 8739,
      "blockchain": 8740,
      "rookie": 8741,
      "borders": 8742,
      "drone": 8743,
      "staying": 8744,
      "Cloud": 8745,
      "Management": 8746,
      "Gordon": 8747,
      "gut": 8748,
      "Elizabeth": 8749,
      "physically": 8750,
      "Move": 8751,
      "distingu": 8752,
      "prosecutors": 8753,
      "bun": 8754,
      "Thompson": 8755,
      "bother": 8756,
      "b4": 8757,
      "Sud": 8758,
      "Comey": 8759,
      "Oakland": 8760,
      "rows": 8761,
      "smile": 8762,
      "importantly": 8763,
      "Executive": 8764,
      "simultane": 8765,
      "citing": 8766,
      "fers": 8767,
      "dialogue": 8768,
      "transaction": 8769,
      "difficulty": 8770,
      "stere": 8771,
      "superior": 8772,
      "highlights": 8773,
      "izer": 8774,
      "135": 8775,
      "isons": 8776,
      "117": 8777,
      "Wol": 8778,
      "deserve": 8779,
      "struggled": 8780,
      "interpre": 8781,
      "therapy": 8782,
      "Libya": 8783,
      "Pers": 8784,
      "MLS": 8785,
      "TON": 8786,
      "whereas": 8787,
      "din": 8788,
      "Model": 8789,
      "demonstrate": 8790,
      "arity": 8791,
      "poison": 8792,
      "Rou": 8793,
      "insu": 8794,
      "managing": 8795,
      "Tennessee": 8796,
      "Sess": 8797,
      "procedure": 8798,
      "Cel": 8799,
      "trials": 8800,
      "labour": 8801,
      "greatly": 8802,
      "Hawai": 8803,
      "iano": 8804,
      "PL": 8805,
      "Based": 8806,
      "meaningful": 8807,
      "gel": 8808,
      "playoffs": 8809,
      "drives": 8810,
      "114": 8811,
      "Hon": 8812,
      "aer": 8813,
      "sons": 8814,
      "damaged": 8815,
      "enthusi": 8816,
      "strategies": 8817,
      "wanting": 8818,
      "ishop": 8819,
      "olds": 8820,
      "occupied": 8821,
      "assumed": 8822,
      "Andy": 8823,
      "recipe": 8824,
      "ifer": 8825,
      "Alan": 8826,
      "contacted": 8827,
      "Festival": 8828,
      "116": 8829,
      "js": 8830,
      "eases": 8831,
      "moval": 8832,
      "economics": 8833,
      "portation": 8834,
      "Hero": 8835,
      "capitalism": 8836,
      "worn": 8837,
      "omed": 8838,
      "wounded": 8839,
      "Additionally": 8840,
      "GDP": 8841,
      "participation": 8842,
      "jar": 8843,
      "indicates": 8844,
      "MR": 8845,
      "racing": 8846,
      "stops": 8847,
      "Furthermore": 8848,
      "intellig": 8849,
      "butter": 8850,
      "aler": 8851,
      "Det": 8852,
      "speaker": 8853,
      "endorse": 8854,
      "executives": 8855,
      "facilit": 8856,
      "aire": 8857,
      "moderate": 8858,
      "Cas": 8859,
      "igate": 8860,
      "planes": 8861,
      "Ya": 8862,
      "kg": 8863,
      "representation": 8864,
      "Subscri": 8865,
      "contribution": 8866,
      "enabled": 8867,
      "implications": 8868,
      "umin": 8869,
      "sweep": 8870,
      "utility": 8871,
      "escap": 8872,
      "competing": 8873,
      "enhance": 8874,
      "rab": 8875,
      "Aaron": 8876,
      "SL": 8877,
      "uten": 8878,
      "ministry": 8879,
      "divor": 8880,
      "spectrum": 8881,
      "Russell": 8882,
      "posting": 8883,
      "backing": 8884,
      "Cooper": 8885,
      "angel": 8886,
      "apolis": 8887,
      "Affairs": 8888,
      "Aren": 8889,
      "donations": 8890,
      "Harper": 8891,
      "Wi": 8892,
      "addresses": 8893,
      "attractive": 8894,
      "precedented": 8895,
      "tired": 8896,
      "educational": 8897,
      "fined": 8898,
      "gene": 8899,
      "Sex": 8900,
      "muscle": 8901,
      "uth": 8902,
      "Kentucky": 8903,
      "cents": 8904,
      "migrants": 8905,
      "eager": 8906,
      "setup": 8907,
      "ultural": 8908,
      "arre": 8909,
      "Les": 8910,
      "Bren": 8911,
      "Won": 8912,
      "dispute": 8913,
      "openly": 8914,
      "thood": 8915,
      "Cra": 8916,
      "substance": 8917,
      "frequent": 8918,
      "centuries": 8919,
      "104": 8920,
      "Economic": 8921,
      "filling": 8922,
      "checked": 8923,
      "icket": 8924,
      "Form": 8925,
      "Date": 8926,
      "variable": 8927,
      "Pitts": 8928,
      "packed": 8929,
      "clothing": 8930,
      "investments": 8931,
      "opher": 8932,
      "memories": 8933,
      "Job": 8934,
      "Ti": 8935,
      "signature": 8936,
      "genre": 8937,
      "judgment": 8938,
      "Ther": 8939,
      "Anti": 8940,
      "000000000000145": 8941,
      "consciousness": 8942,
      "guidelines": 8943,
      "arc": 8944,
      "bottle": 8945,
      "ucks": 8946,
      "Pentagon": 8947,
      "Clear": 8948,
      "charity": 8949,
      "tut": 8950,
      "Future": 8951,
      "foods": 8952,
      "Hart": 8953,
      "studying": 8954,
      "Jean": 8955,
      "stamp": 8956,
      "***": 8957,
      "mood": 8958,
      "passage": 8959,
      "Nel": 8960,
      "Yan": 8961,
      "lib": 8962,
      "grapher": 8963,
      "suspects": 8964,
      "presentation": 8965,
      "sovereign": 8966,
      "max": 8967,
      "Jacob": 8968,
      "agreements": 8969,
      "regulatory": 8970,
      "Khan": 8971,
      "perceived": 8972,
      "Phoenix": 8973,
      "Text": 8974,
      "shaped": 8975,
      "custody": 8976,
      "Arm": 8977,
      "defending": 8978,
      "Dor": 8979,
      "searching": 8980,
      "Wales": 8981,
      "ilder": 8982,
      "managers": 8983,
      "ketch": 8984,
      "beach": 8985,
      "Charlot": 8986,
      "sixth": 8987,
      "battles": 8988,
      "leans": 8989,
      "WAT": 8990,
      "uniform": 8991,
      "Put": 8992,
      "unprecedented": 8993,
      "Channel": 8994,
      "surviv": 8995,
      "Fant": 8996,
      "Arsenal": 8997,
      "psychological": 8998,
      "sci": 8999,
      "ression": 9000,
      "integration": 9001,
      "corn": 9002,
      "vertisements": 9003,
      "kitchen": 9004,
      "Library": 9005,
      "isters": 9006,
      "theories": 9007,
      "bullet": 9008,
      "dropping": 9009,
      "industries": 9010,
      "timing": 9011,
      "Cole": 9012,
      "charging": 9013,
      "homosexual": 9014,
      "Band": 9015,
      "followers": 9016,
      "Doctor": 9017,
      "c4": 9018,
      "rection": 9019,
      "discussing": 9020,
      "appearing": 9021,
      "True": 9022,
      "123": 9023,
      "ART": 9024,
      "forum": 9025,
      "marine": 9026,
      "ridiculous": 9027,
      "coaching": 9028,
      "sive": 9029,
      "embed": 9030,
      "casting": 9031,
      "glad": 9032,
      "Nav": 9033,
      "Word": 9034,
      "e9": 9035,
      "modified": 9036,
      "EA": 9037,
      "recruit": 9038,
      "b7": 9039,
      "diseases": 9040,
      "kee": 9041,
      "Jeremy": 9042,
      "hoo": 9043,
      "Ocean": 9044,
      "Venez": 9045,
      "240": 9046,
      "impression": 9047,
      "rebels": 9048,
      "slide": 9049,
      "cott": 9050,
      "itol": 9051,
      "hosts": 9052,
      "fights": 9053,
      "Editor": 9054,
      "---": 9055,
      "arrival": 9056,
      "pulling": 9057,
      "tale": 9058,
      "walks": 9059,
      "FS": 9060,
      "publishing": 9061,
      "fool": 9062,
      "underlying": 9063,
      "creatures": 9064,
      "fabric": 9065,
      "netic": 9066,
      "adventure": 9067,
      "skip": 9068,
      "Nu": 9069,
      "colour": 9070,
      "riors": 9071,
      "Ol": 9072,
      "preferred": 9073,
      "topics": 9074,
      "Happ": 9075,
      "extraordinary": 9076,
      "statist": 9077,
      "c6": 9078,
      "pharm": 9079,
      "Simp": 9080,
      "Ext": 9081,
      "whis": 9082,
      "perception": 9083,
      "subscribe": 9084,
      "bands": 9085,
      "oid": 9086,
      "principal": 9087,
      "punishment": 9088,
      "yer": 9089,
      "rhetoric": 9090,
      "adequate": 9091,
      "biological": 9092,
      "Ri": 9093,
      "gence": 9094,
      "Bos": 9095,
      "Tali": 9096,
      "lando": 9097,
      "anno": 9098,
      "beings": 9099,
      "igenous": 9100,
      "towns": 9101,
      "scrutin": 9102,
      "engineer": 9103,
      "Rome": 9104,
      "ications": 9105,
      "oto": 9106,
      "sacrif": 9107,
      "agu": 9108,
      "txt0000644000000000000000000002": 9109,
      "nod": 9110,
      "explaining": 9111,
      "ske": 9112,
      "Reagan": 9113,
      "Winter": 9114,
      "loves": 9115,
      "Holy": 9116,
      "Tan": 9117,
      "pollution": 9118,
      "fatal": 9119,
      "stig": 9120,
      "interaction": 9121,
      "Bes": 9122,
      "Venezuel": 9123,
      "Ott": 9124,
      "procedures": 9125,
      "engineers": 9126,
      "Looking": 9127,
      "icate": 9128,
      "exerc": 9129,
      "everyday": 9130,
      "Montreal": 9131,
      "mons": 9132,
      "talented": 9133,
      "Delhi": 9134,
      "commander": 9135,
      "Buff": 9136,
      "parad": 9137,
      "Wolf": 9138,
      "Univers": 9139,
      "fires": 9140,
      "scratch": 9141,
      "liest": 9142,
      "Antonio": 9143,
      "anged": 9144,
      "agr": 9145,
      "aching": 9146,
      "helicop": 9147,
      "enger": 9148,
      "Tesla": 9149,
      "Tel": 9150,
      "hospitals": 9151,
      "Tam": 9152,
      "Stock": 9153,
      "Respon": 9154,
      "segment": 9155,
      "evident": 9156,
      "trends": 9157,
      "Film": 9158,
      "f5": 9159,
      "Mas": 9160,
      "brush": 9161,
      "Try": 9162,
      "reserved": 9163,
      "adviser": 9164,
      "Brooklyn": 9165,
      "removal": 9166,
      "Obviously": 9167,
      "partly": 9168,
      "sessions": 9169,
      "acknowledge": 9170,
      "dismiss": 9171,
      "Cli": 9172,
      "references": 9173,
      "tweets": 9174,
      "Non": 9175,
      "pleased": 9176,
      "shoes": 9177,
      "Train": 9178,
      "Creat": 9179,
      "Standard": 9180,
      "Tw": 9181,
      "500000000000015": 9182,
      "Interest": 9183,
      "nose": 9184,
      "alt": 9185,
      "Pope": 9186,
      "acon": 9187,
      "requirement": 9188,
      "Hop": 9189,
      "hanging": 9190,
      "Independent": 9191,
      "cognitive": 9192,
      "billions": 9193,
      "fleet": 9194,
      "clip": 9195,
      "maintenance": 9196,
      "Continue": 9197,
      "nationally": 9198,
      "periods": 9199,
      "Very": 9200,
      "badly": 9201,
      "brilliant": 9202,
      "Adams": 9203,
      "Orlando": 9204,
      "dose": 9205,
      "sentenced": 9206,
      "killer": 9207,
      "requiring": 9208,
      "elder": 9209,
      "priest": 9210,
      "4th": 9211,
      "icipal": 9212,
      "carto": 9213,
      "PT": 9214,
      "restricted": 9215,
      "Mind": 9216,
      "invasion": 9217,
      "diction": 9218,
      "\":\"": 9219,
      "yeah": 9220,
      "anonymous": 9221,
      "signals": 9222,
      "strengthen": 9223,
      "rice": 9224,
      "styles": 9225,
      "theore": 9226,
      "Coal": 9227,
      "dreams": 9228,
      "106": 9229,
      "checking": 9230,
      "Climate": 9231,
      "mud": 9232,
      "comics": 9233,
      "Round": 9234,
      "outlets": 9235,
      "shocked": 9236,
      "Pow": 9237,
      "Psych": 9238,
      "outed": 9239,
      "prize": 9240,
      "Area": 9241,
      "Abd": 9242,
      "concepts": 9243,
      "inity": 9244,
      "Craig": 9245,
      "mystery": 9246,
      "compensation": 9247,
      "Sheriff": 9248,
      "Gab": 9249,
      "iller": 9250,
      "Missouri": 9251,
      "biz": 9252,
      "JavaScript": 9253,
      "ulating": 9254,
      "AB": 9255,
      "256": 9256,
      "associate": 9257,
      "lineup": 9258,
      "criter": 9259,
      "overcome": 9260,
      "disappointed": 9261,
      "Marine": 9262,
      "ranging": 9263,
      "deployed": 9264,
      "convince": 9265,
      "authorized": 9266,
      "aims": 9267,
      "dones": 9268,
      "iki": 9269,
      "dramatically": 9270,
      "pleasure": 9271,
      "blocking": 9272,
      "operated": 9273,
      "Hitler": 9274,
      "mice": 9275,
      "pour": 9276,
      "carries": 9277,
      "ffe": 9278,
      "lifetime": 9279,
      "UST": 9280,
      "Place": 9281,
      "deadline": 9282,
      "wet": 9283,
      "Christopher": 9284,
      "cycling": 9285,
      "127": 9286,
      "eh": 9287,
      "occurs": 9288,
      "eliminate": 9289,
      "notable": 9290,
      "xy": 9291,
      "weakness": 9292,
      "SEC": 9293,
      "ument": 9294,
      "b3": 9295,
      "Ven": 9296,
      "constrain": 9297,
      "Dream": 9298,
      "103": 9299,
      "revolutionary": 9300,
      "umps": 9301,
      "advent": 9302,
      "parency": 9303,
      "jihad": 9304,
      "Spir": 9305,
      "eggs": 9306,
      "USB": 9307,
      "artificial": 9308,
      "amendment": 9309,
      "stom": 9310,
      "abstr": 9311,
      "witnesses": 9312,
      "philosoph": 9313,
      "Within": 9314,
      "approaches": 9315,
      "inspe": 9316,
      "agger": 9317,
      "hibited": 9318,
      "asset": 9319,
      "diplomatic": 9320,
      "insight": 9321,
      "contemporary": 9322,
      "cheaper": 9323,
      "Steel": 9324,
      "recommendations": 9325,
      "snap": 9326,
      "}}": 9327,
      "shelter": 9328,
      "Duke": 9329,
      "ativity": 9330,
      "physics": 9331,
      "sits": 9332,
      "displayed": 9333,
      "Jane": 9334,
      "convenient": 9335,
      "prompted": 9336,
      "Crit": 9337,
      "recept": 9338,
      "Pittsburgh": 9339,
      "cats": 9340,
      "reviewed": 9341,
      "hawks": 9342,
      "resolve": 9343,
      "inquiry": 9344,
      "analysts": 9345,
      "constitu": 9346,
      "automatic": 9347,
      "orous": 9348,
      "unve": 9349,
      "txt00006440000000000000000000016": 9350,
      "collaboration": 9351,
      "sink": 9352,
      "Clo": 9353,
      "encouraging": 9354,
      "File": 9355,
      "Ta": 9356,
      "communicate": 9357,
      "Aw": 9358,
      "libr": 9359,
      "belt": 9360,
      "Argent": 9361,
      "mu": 9362,
      "107": 9363,
      "configuration": 9364,
      "decor": 9365,
      "BN": 9366,
      "instances": 9367,
      "drum": 9368,
      "uan": 9369,
      "landed": 9370,
      "00000000000000This": 9371,
      "Doc": 9372,
      "royal": 9373,
      "iden": 9374,
      "Reserve": 9375,
      "1960s": 9376,
      "neighbors": 9377,
      "couples": 9378,
      "hunting": 9379,
      "Wy": 9380,
      "{\\": 9381,
      "izza": 9382,
      "Step": 9383,
      "traged": 9384,
      "Section": 9385,
      "Abr": 9386,
      "provision": 9387,
      "constructed": 9388,
      "\",\"": 9389,
      "Jun": 9390,
      "Brew": 9391,
      "Manager": 9392,
      "demanded": 9393,
      "deemed": 9394,
      "Nevada": 9395,
      "aco": 9396,
      "xture": 9397,
      "designer": 9398,
      "sav": 9399,
      "guests": 9400,
      "accum": 9401,
      "occasionally": 9402,
      "Perry": 9403,
      "750": 9404,
      "aki": 9405,
      "defender": 9406,
      "knife": 9407,
      "ancer": 9408,
      "violations": 9409,
      "Indones": 9410,
      "strip": 9411,
      "tooth": 9412,
[...]
